// Automatically generated from model_int8.tflite
const unsigned char model_int8_tflite[] = {
0x20,0x00,0x00,0x00,0x54,0x46,0x4c,0x33,0x00,0x00,0x00,0x00,
0x14,0x00,0x20,0x00,0x1c,0x00,0x18,0x00,0x14,0x00,0x10,0x00,
0x0c,0x00,0x00,0x00,0x08,0x00,0x04,0x00,0x14,0x00,0x00,0x00,
0x1c,0x00,0x00,0x00,0x98,0x00,0x00,0x00,0xf0,0x00,0x00,0x00,
0x54,0x07,0x00,0x00,0x64,0x07,0x00,0x00,0x44,0x13,0x00,0x00,
0x03,0x00,0x00,0x00,0x01,0x00,0x00,0x00,0x10,0x00,0x00,0x00,
0x00,0x00,0x0a,0x00,0x10,0x00,0x0c,0x00,0x08,0x00,0x04,0x00,
0x0a,0x00,0x00,0x00,0x0c,0x00,0x00,0x00,0x1c,0x00,0x00,0x00,
0x3c,0x00,0x00,0x00,0x0f,0x00,0x00,0x00,0x73,0x65,0x72,0x76,
0x69,0x6e,0x67,0x5f,0x64,0x65,0x66,0x61,0x75,0x6c,0x74,0x00,
0x01,0x00,0x00,0x00,0x04,0x00,0x00,0x00,0x90,0xff,0xff,0xff,
0x09,0x00,0x00,0x00,0x04,0x00,0x00,0x00,0x08,0x00,0x00,0x00,
0x6f,0x75,0x74,0x70,0x75,0x74,0x5f,0x30,0x00,0x00,0x00,0x00,
0x01,0x00,0x00,0x00,0x04,0x00,0x00,0x00,0x3e,0xf9,0xff,0xff,
0x04,0x00,0x00,0x00,0x0c,0x00,0x00,0x00,0x6b,0x65,0x72,0x61,
0x73,0x5f,0x74,0x65,0x6e,0x73,0x6f,0x72,0x00,0x00,0x00,0x00,
0x02,0x00,0x00,0x00,0x34,0x00,0x00,0x00,0x04,0x00,0x00,0x00,
0xdc,0xff,0xff,0xff,0x0c,0x00,0x00,0x00,0x04,0x00,0x00,0x00,
0x13,0x00,0x00,0x00,0x43,0x4f,0x4e,0x56,0x45,0x52,0x53,0x49,
0x4f,0x4e,0x5f,0x4d,0x45,0x54,0x41,0x44,0x41,0x54,0x41,0x00,
0x08,0x00,0x0c,0x00,0x08,0x00,0x04,0x00,0x08,0x00,0x00,0x00,
0x0b,0x00,0x00,0x00,0x04,0x00,0x00,0x00,0x13,0x00,0x00,0x00,
0x6d,0x69,0x6e,0x5f,0x72,0x75,0x6e,0x74,0x69,0x6d,0x65,0x5f,
0x76,0x65,0x72,0x73,0x69,0x6f,0x6e,0x00,0x0d,0x00,0x00,0x00,
0x60,0x06,0x00,0x00,0x58,0x06,0x00,0x00,0x44,0x06,0x00,0x00,
0x0c,0x06,0x00,0x00,0x7c,0x05,0x00,0x00,0x6c,0x01,0x00,0x00,
0xdc,0x00,0x00,0x00,0xac,0x00,0x00,0x00,0xa4,0x00,0x00,0x00,
0x9c,0x00,0x00,0x00,0x94,0x00,0x00,0x00,0x74,0x00,0x00,0x00,
0x04,0x00,0x00,0x00,0xee,0xf9,0xff,0xff,0x04,0x00,0x00,0x00,
0x60,0x00,0x00,0x00,0x0c,0x00,0x00,0x00,0x08,0x00,0x0e,0x00,
0x08,0x00,0x04,0x00,0x08,0x00,0x00,0x00,0x10,0x00,0x00,0x00,
0x28,0x00,0x00,0x00,0x00,0x00,0x06,0x00,0x08,0x00,0x04,0x00,
0x06,0x00,0x00,0x00,0x04,0x00,0x00,0x00,0x01,0x00,0x00,0x00,
0xeb,0x03,0x00,0x00,0x0c,0x00,0x18,0x00,0x14,0x00,0x10,0x00,
0x0c,0x00,0x04,0x00,0x0c,0x00,0x00,0x00,0x8c,0x04,0x70,0xb8,
0xf1,0xac,0x2d,0x0b,0x01,0x00,0x00,0x00,0x02,0x00,0x00,0x00,
0x04,0x00,0x00,0x00,0x06,0x00,0x00,0x00,0x32,0x2e,0x32,0x30,
0x2e,0x30,0x00,0x00,0x5a,0xfa,0xff,0xff,0x04,0x00,0x00,0x00,
0x10,0x00,0x00,0x00,0x31,0x2e,0x31,0x34,0x2e,0x30,0x00,0x00,
0x00,0x00,0x00,0x00,0x00,0x00,0x00,0x00,0xe4,0xf9,0xff,0xff,
0xe8,0xf9,0xff,0xff,0xec,0xf9,0xff,0xff,0x82,0xfa,0xff,0xff,
0x04,0x00,0x00,0x00,0x20,0x00,0x00,0x00,0x81,0x7f,0x81,0x7f,
0x7f,0x81,0x7f,0x7f,0x81,0x81,0x81,0x7f,0x7f,0x7f,0x7f,0x7f,
0x81,0x81,0x81,0x7f,0x81,0x81,0x81,0x81,0x81,0x81,0x81,0x7f,
0x81,0x81,0x7f,0x81,0xae,0xfa,0xff,0xff,0x04,0x00,0x00,0x00,
0x80,0x00,0x00,0x00,0x22,0xff,0xff,0xff,0xc9,0xe7,0xff,0xff,
0x1c,0x14,0x00,0x00,0x3c,0x06,0x00,0x00,0xc7,0x1b,0x00,0x00,
0x67,0xf3,0xff,0xff,0x7e,0x24,0x00,0x00,0x74,0x24,0x00,0x00,
0xbd,0xf1,0xff,0xff,0x28,0xe4,0xff,0xff,0x1e,0x69,0x00,0x00,
0xba,0x18,0x00,0x00,0x69,0x27,0x00,0x00,0xf9,0x1e,0x00,0x00,
0xe8,0xe0,0xff,0xff,0x54,0xe7,0xff,0xff,0x78,0xe8,0xff,0xff,
0x16,0x10,0x00,0x00,0x1b,0x32,0x00,0x00,0x7b,0x9f,0x00,0x00,
0x54,0x63,0x00,0x00,0xda,0x4b,0xff,0xff,0x6c,0x32,0x00,0x00,
0x6f,0xf1,0xff,0xff,0x69,0x4b,0x00,0x00,0x60,0x40,0x00,0x00,
0xd4,0x26,0x00,0x00,0x89,0xe3,0xf9,0xff,0x95,0x07,0x00,0x00,
0x11,0xd5,0xff,0xff,0xb1,0x2c,0x00,0x00,0x29,0x14,0x00,0x00,
0x3a,0xfb,0xff,0xff,0x04,0x00,0x00,0x00,0x00,0x04,0x00,0x00,
0xff,0x97,0x03,0xf1,0xbf,0xb1,0x3c,0x40,0x09,0x37,0x48,0x2c,
0xef,0xce,0x8e,0x81,0x05,0xcb,0xab,0x58,0x3a,0x0d,0xd5,0x1d,
0x06,0xd1,0xa4,0x1b,0x09,0xbb,0x03,0xcc,0xcf,0xcb,0x08,0x81,
0x0b,0xea,0xea,0x93,0x41,0xd0,0x0b,0xbd,0x16,0xda,0x33,0x28,
0xed,0x14,0x39,0x21,0x3e,0x06,0xf6,0x39,0xcf,0x50,0xc3,0x2c,
0x43,0x91,0x21,0xca,0x12,0xf8,0xd3,0xd0,0xf7,0xda,0xdd,0xb8,
0xad,0xc7,0xf3,0x18,0xc7,0xb5,0xd3,0xd4,0xa6,0x24,0xf6,0x7f,
0x56,0x2b,0xf0,0xc1,0x2d,0x1a,0xf0,0xee,0xc8,0x9b,0xd5,0x24,
0x22,0xe4,0x41,0x09,0x81,0xc8,0xbc,0x88,0x39,0x34,0xed,0xcc,
0xb7,0xf0,0xfb,0x22,0xd4,0x0c,0xf9,0x51,0x52,0x11,0x23,0xaf,
0x55,0x16,0x06,0xdf,0xef,0xe2,0xeb,0x11,0x3c,0x83,0x1b,0xc7,
0x34,0xd5,0x49,0x41,0x34,0x64,0x10,0x0e,0x36,0x34,0x81,0xbb,
0xfa,0xfe,0xf6,0x44,0x33,0x33,0xd4,0x33,0xe7,0x3a,0xf3,0x22,
0x24,0x5c,0x45,0xec,0xfe,0xff,0xda,0x81,0xc8,0xf1,0xe3,0xcc,
0x02,0xbd,0x07,0xa3,0xdd,0x00,0x1a,0xff,0xb6,0xf6,0x23,0x31,
0x17,0xd2,0x13,0xed,0x2f,0x09,0xf7,0xf5,0x15,0xb1,0xc6,0xd7,
0x50,0xbd,0x81,0x44,0xc3,0x4d,0x76,0xf3,0x20,0xbe,0xb3,0xc0,
0x34,0xf3,0x41,0x65,0x2c,0x01,0xb8,0xc7,0xb1,0xf4,0x20,0x69,
0xa2,0xf9,0xfe,0xbb,0x11,0xeb,0x1b,0xe5,0x3f,0xf4,0xc5,0x93,
0x08,0xea,0xa3,0xf5,0x23,0xf2,0xea,0x81,0xe0,0xc4,0x17,0xe2,
0xb9,0xfa,0x19,0x26,0x20,0x17,0xdb,0x37,0x0d,0x55,0xf6,0x27,
0xf1,0x26,0xda,0x2e,0x3c,0xec,0xcc,0x0c,0x23,0x56,0xf5,0x02,
0x55,0x19,0xfc,0x28,0x45,0x3e,0x86,0x81,0xcd,0x0a,0xe4,0xfb,
0x1d,0x3e,0xc9,0x35,0x0f,0x30,0xbf,0xc2,0x00,0xf9,0x18,0x00,
0x51,0xc7,0xba,0x82,0xbe,0x8d,0x1a,0xf1,0x17,0x8e,0xfc,0x27,
0xbc,0x93,0x47,0x93,0x8c,0x53,0x34,0xc5,0xf8,0xb4,0x5c,0xc7,
0x81,0xba,0x30,0xbd,0x00,0x60,0x06,0x48,0x27,0x18,0xfc,0x16,
0x41,0xdc,0xef,0x44,0xf5,0x19,0xf1,0xe0,0x16,0x0f,0x81,0xa0,
0x22,0x20,0xf2,0xe1,0x40,0x30,0x2d,0x3d,0x18,0x31,0xec,0xe6,
0x1c,0x09,0x27,0xe0,0x57,0x8e,0x0a,0xa3,0xc2,0x21,0xbc,0x94,
0xfa,0xf9,0x03,0x84,0x75,0xa0,0x17,0x58,0x01,0xff,0xe4,0xa2,
0x33,0xa8,0x83,0x81,0xad,0x62,0x14,0x40,0x47,0xaf,0x1c,0x95,
0xb4,0x28,0x12,0x81,0x95,0xc6,0xec,0xe7,0x34,0xd2,0x6e,0x9e,
0xb7,0x9f,0xf8,0xd7,0x2c,0xde,0x3a,0x4e,0x28,0xd0,0x56,0xdc,
0xec,0xe8,0x2b,0x4e,0x28,0x93,0x38,0x0d,0x33,0x9d,0x03,0x8e,
0xc9,0x05,0xee,0xad,0xb0,0xd2,0x3d,0xaa,0xb2,0x0b,0x5e,0xb1,
0xad,0x1a,0xec,0x7f,0x51,0xc6,0xeb,0xd9,0x39,0x48,0x37,0x07,
0xee,0xba,0xbf,0x35,0x26,0xda,0xcb,0xc7,0xf9,0x64,0xad,0x0a,
0x0d,0xda,0xee,0x0b,0x66,0xf1,0xed,0x26,0x56,0xb4,0x95,0x1b,
0x81,0x86,0xd3,0x8f,0x25,0x19,0xa9,0x1f,0xe7,0xc8,0x58,0x61,
0x32,0x10,0xf9,0xdb,0x22,0xea,0x16,0x4d,0x0d,0x33,0x02,0xef,
0xac,0xea,0x26,0xf2,0x22,0x21,0xf4,0x81,0xd2,0xd2,0xf3,0xf1,
0x22,0x02,0x28,0xf3,0x22,0x1c,0xef,0x10,0xbe,0x81,0xee,0x1d,
0xdc,0x07,0x40,0xd1,0x0e,0x1e,0x5c,0xf1,0x15,0x15,0xc0,0x88,
0xe7,0xe4,0xd4,0x54,0x2a,0xba,0xc3,0xc4,0x2f,0x08,0x21,0xfb,
0x96,0x18,0x0b,0xdf,0x94,0xd1,0xf9,0x56,0x90,0x16,0x11,0xc7,
0x66,0xfe,0xad,0xaa,0x89,0x76,0x37,0x7c,0x33,0x84,0x7f,0x95,
0x0e,0x97,0x4e,0x14,0xa7,0x8b,0x1c,0x6e,0xeb,0xbc,0xf2,0xa8,
0x22,0x24,0x1d,0x1c,0x07,0xec,0x46,0xd2,0x2c,0xf1,0x17,0xd1,
0xb4,0x15,0x24,0x38,0x0f,0x4b,0xd9,0x81,0xb4,0x2c,0x1a,0x49,
0xfb,0x27,0xe4,0x07,0x0c,0x6d,0x23,0x37,0x49,0x52,0xf8,0x1e,
0x43,0x97,0x28,0xa5,0x28,0x83,0xce,0x87,0x93,0x20,0x8e,0x51,
0xb2,0x34,0xba,0xee,0x3a,0x1d,0xb7,0x77,0xe1,0x24,0x09,0x81,
0xa2,0xd9,0x5e,0xd4,0x19,0x13,0xf9,0x22,0x1b,0xfc,0x17,0x0b,
0x10,0x08,0xcb,0x09,0xfa,0x05,0x18,0x25,0xef,0xf1,0x6a,0xff,
0xc8,0x03,0x6a,0x0a,0xad,0x81,0x10,0x05,0xe6,0x07,0xed,0xfa,
0x9b,0xea,0x0d,0xe0,0x0f,0xeb,0x26,0x32,0xbd,0xfb,0x7f,0x29,
0x05,0xf0,0x8e,0xaf,0xae,0xbf,0xea,0x09,0x6a,0x0c,0xf9,0xe7,
0x3f,0xf7,0x12,0xf9,0xaa,0xdf,0x0e,0xc4,0x1a,0x0e,0xdd,0x24,
0x2c,0x44,0xaf,0x95,0x38,0x81,0x73,0x44,0x94,0x9c,0x55,0xa0,
0xa1,0xeb,0xaa,0xb1,0xc6,0x99,0x4d,0xf8,0x03,0x9a,0x42,0x73,
0x37,0xa0,0xa3,0xf5,0xb9,0xa9,0xc3,0x37,0x3d,0xb5,0xeb,0x09,
0xb1,0xde,0x7f,0x0e,0xcb,0x15,0xd0,0x8c,0xf2,0xcd,0xf6,0x0a,
0x6c,0xcd,0xd2,0xdd,0x5c,0xf1,0xf5,0x42,0xd9,0x9d,0xdc,0xd3,
0x24,0x03,0xda,0x11,0xd2,0x34,0x02,0x32,0x3b,0x2d,0x12,0x0b,
0x2b,0x26,0x81,0xfb,0x31,0xde,0x29,0x1c,0x26,0x1d,0xdd,0x3b,
0x20,0x22,0xd9,0xe4,0x05,0x18,0x07,0xd6,0xcb,0x0e,0x53,0x8f,
0xa7,0x59,0x21,0xfd,0x5d,0xe1,0x94,0x1f,0x85,0x92,0x98,0xb1,
0x7f,0x0a,0x6e,0xae,0xfe,0x22,0x4c,0xfd,0x02,0x0a,0x2f,0x00,
0x62,0x5e,0xb7,0xbb,0x1e,0x2b,0x12,0x8c,0xdf,0xe8,0x88,0xaf,
0xcf,0xd8,0x4d,0xde,0x27,0x81,0xdb,0xf7,0xb9,0x47,0x04,0x73,
0x36,0xd7,0x48,0xce,0xf7,0x00,0x4d,0xf3,0x36,0x0c,0xd6,0x17,
0xa2,0xc1,0xbf,0xe1,0x0e,0xe3,0x08,0x12,0x40,0x20,0x1b,0xf5,
0x0d,0xfb,0x9d,0xfd,0xf8,0xbc,0xd9,0x29,0x47,0xea,0xf2,0x72,
0x19,0xfb,0xec,0xed,0x81,0x14,0xdc,0xf4,0xd0,0x42,0xea,0xa5,
0xf1,0x0e,0x4d,0xbc,0x74,0xb5,0xd7,0xe2,0x3a,0xc8,0xc7,0x08,
0xc9,0xd1,0x01,0xac,0x67,0xfd,0x6e,0x75,0x81,0x1c,0xff,0xa3,
0x4a,0x14,0xa7,0xa3,0xbf,0xb6,0x18,0xc2,0xe7,0xb1,0x04,0x9e,
0xb7,0x91,0x48,0xca,0xe4,0xa2,0xb4,0xe0,0xc4,0xce,0x0f,0x7f,
0x1e,0x27,0x12,0xfc,0x2f,0x2a,0x06,0x35,0x12,0x93,0x01,0xf9,
0x0a,0x47,0xd7,0x3e,0xe9,0xcf,0x42,0xb6,0x02,0xd6,0xe8,0x55,
0x1b,0x03,0x42,0x59,0x32,0x20,0x18,0xf7,0xa0,0xc0,0x19,0x5e,
0x81,0xfd,0xc7,0x93,0xca,0x39,0x51,0x37,0x37,0x00,0x05,0x30,
0x2d,0x11,0x28,0xf5,0xdf,0x4c,0x44,0xc9,0xf5,0x2c,0x81,0xe2,
0x04,0x2a,0xc0,0xf1,0xe3,0x07,0xfc,0x00,0x3d,0xc1,0x2d,0x04,
0xfe,0x53,0xe1,0x3a,0x46,0xff,0xff,0xff,0x04,0x00,0x00,0x00,
0x80,0x00,0x00,0x00,0x27,0x2e,0x00,0x00,0xce,0x31,0x00,0x00,
0xb7,0x3a,0x00,0x00,0x31,0x2e,0x00,0x00,0x1f,0xfa,0xff,0xff,
0x82,0xf9,0xff,0xff,0x4a,0xeb,0xff,0xff,0x6c,0x36,0x00,0x00,
0x8d,0x06,0x00,0x00,0x72,0xee,0xff,0xff,0xe5,0xfa,0xff,0xff,
0x00,0x00,0x00,0x00,0xea,0x37,0x00,0x00,0x74,0x27,0x00,0x00,
0xb1,0xf2,0xff,0xff,0x4e,0xe2,0xff,0xff,0x9c,0x27,0x00,0x00,
0x00,0x00,0x00,0x00,0xf6,0xc8,0xff,0xff,0xab,0xf2,0xff,0xff,
0x4f,0xec,0xff,0xff,0xf6,0x31,0x00,0x00,0x27,0xf8,0xff,0xff,
0x29,0x39,0x00,0x00,0xd2,0x01,0x00,0x00,0xb1,0xc4,0xff,0xff,
0x98,0x2a,0x00,0x00,0xae,0x23,0x00,0x00,0x65,0xf1,0xff,0xff,
0x4c,0x4c,0x00,0x00,0x8c,0x1f,0x00,0x00,0xb7,0xf2,0xff,0xff,
0xd2,0xff,0xff,0xff,0x04,0x00,0x00,0x00,0x20,0x00,0x00,0x00,
0x49,0xcf,0x8d,0xe9,0x40,0x1e,0x34,0xd7,0x40,0x18,0x16,0xd5,
0xe1,0xaf,0x35,0x14,0x5a,0xc4,0x15,0xef,0xa7,0x30,0x20,0x4c,
0x32,0x30,0xc7,0x46,0x2d,0x81,0xf9,0x26,0x00,0x00,0x06,0x00,
0x08,0x00,0x04,0x00,0x06,0x00,0x00,0x00,0x04,0x00,0x00,0x00,
0x04,0x00,0x00,0x00,0xfd,0xf7,0xff,0xff,0x84,0xff,0xff,0xff,
0x88,0xff,0xff,0xff,0x0f,0x00,0x00,0x00,0x4d,0x4c,0x49,0x52,
0x20,0x43,0x6f,0x6e,0x76,0x65,0x72,0x74,0x65,0x64,0x2e,0x00,
0x01,0x00,0x00,0x00,0x14,0x00,0x00,0x00,0x00,0x00,0x0e,0x00,
0x18,0x00,0x14,0x00,0x10,0x00,0x0c,0x00,0x08,0x00,0x04,0x00,
0x0e,0x00,0x00,0x00,0x14,0x00,0x00,0x00,0x1c,0x00,0x00,0x00,
0xdc,0x00,0x00,0x00,0xe0,0x00,0x00,0x00,0xe4,0x00,0x00,0x00,
0x04,0x00,0x00,0x00,0x6d,0x61,0x69,0x6e,0x00,0x00,0x00,0x00,
0x03,0x00,0x00,0x00,0x84,0x00,0x00,0x00,0x3c,0x00,0x00,0x00,
0x04,0x00,0x00,0x00,0x96,0xff,0xff,0xff,0x14,0x00,0x00,0x00,
0x00,0x00,0x00,0x08,0x10,0x00,0x00,0x00,0x14,0x00,0x00,0x00,
0x04,0x00,0x04,0x00,0x04,0x00,0x00,0x00,0x01,0x00,0x00,0x00,
0x09,0x00,0x00,0x00,0x03,0x00,0x00,0x00,0x08,0x00,0x00,0x00,
0x02,0x00,0x00,0x00,0x01,0x00,0x00,0x00,0xca,0xff,0xff,0xff,
0x10,0x00,0x00,0x00,0x00,0x00,0x00,0x08,0x10,0x00,0x00,0x00,
0x14,0x00,0x00,0x00,0xba,0xff,0xff,0xff,0x00,0x00,0x00,0x01,
0x01,0x00,0x00,0x00,0x08,0x00,0x00,0x00,0x03,0x00,0x00,0x00,
0x07,0x00,0x00,0x00,0x04,0x00,0x00,0x00,0x03,0x00,0x00,0x00,
0x00,0x00,0x0e,0x00,0x16,0x00,0x00,0x00,0x10,0x00,0x0c,0x00,
0x0b,0x00,0x04,0x00,0x0e,0x00,0x00,0x00,0x18,0x00,0x00,0x00,
0x00,0x00,0x00,0x08,0x18,0x00,0x00,0x00,0x1c,0x00,0x00,0x00,
0x00,0x00,0x06,0x00,0x08,0x00,0x07,0x00,0x06,0x00,0x00,0x00,
0x00,0x00,0x00,0x01,0x01,0x00,0x00,0x00,0x07,0x00,0x00,0x00,
0x03,0x00,0x00,0x00,0x00,0x00,0x00,0x00,0x06,0x00,0x00,0x00,
0x05,0x00,0x00,0x00,0x01,0x00,0x00,0x00,0x09,0x00,0x00,0x00,
0x01,0x00,0x00,0x00,0x00,0x00,0x00,0x00,0x0a,0x00,0x00,0x00,
0x44,0x0a,0x00,0x00,0xcc,0x09,0x00,0x00,0x50,0x09,0x00,0x00,
0x7c,0x07,0x00,0x00,0xa0,0x05,0x00,0x00,0xcc,0x03,0x00,0x00,
0xf0,0x01,0x00,0x00,0x3c,0x01,0x00,0x00,0x80,0x00,0x00,0x00,
0x04,0x00,0x00,0x00,0xfa,0xf5,0xff,0xff,0x00,0x00,0x00,0x01,
0x18,0x00,0x00,0x00,0x20,0x00,0x00,0x00,0x3c,0x00,0x00,0x00,
0x0a,0x00,0x00,0x00,0x00,0x00,0x00,0x09,0x50,0x00,0x00,0x00,
0x02,0x00,0x00,0x00,0xff,0xff,0xff,0xff,0x01,0x00,0x00,0x00,
0xe4,0xf5,0xff,0xff,0x08,0x00,0x00,0x00,0x10,0x00,0x00,0x00,
0x01,0x00,0x00,0x00,0x01,0x00,0x00,0x00,0x00,0x00,0x00,0x00,
0x01,0x00,0x00,0x00,0xc5,0xcc,0xff,0x3b,0x1b,0x00,0x00,0x00,
0x53,0x74,0x61,0x74,0x65,0x66,0x75,0x6c,0x50,0x61,0x72,0x74,
0x69,0x74,0x69,0x6f,0x6e,0x65,0x64,0x43,0x61,0x6c,0x6c,0x5f,
0x31,0x3a,0x30,0x00,0x02,0x00,0x00,0x00,0x01,0x00,0x00,0x00,
0x01,0x00,0x00,0x00,0x72,0xf6,0xff,0xff,0x00,0x00,0x00,0x01,
0x18,0x00,0x00,0x00,0x20,0x00,0x00,0x00,0x3c,0x00,0x00,0x00,
0x09,0x00,0x00,0x00,0x00,0x00,0x00,0x09,0x90,0x00,0x00,0x00,
0x02,0x00,0x00,0x00,0xff,0xff,0xff,0xff,0x20,0x00,0x00,0x00,
0x5c,0xf6,0xff,0xff,0x08,0x00,0x00,0x00,0x10,0x00,0x00,0x00,
0x01,0x00,0x00,0x00,0x80,0xff,0xff,0xff,0xff,0xff,0xff,0xff,
0x01,0x00,0x00,0x00,0x3a,0xea,0x1a,0x3b,0x58,0x00,0x00,0x00,
0x73,0x65,0x71,0x75,0x65,0x6e,0x74,0x69,0x61,0x6c,0x5f,0x31,
0x2f,0x64,0x65,0x6e,0x73,0x65,0x5f,0x31,0x5f,0x32,0x2f,0x4d,
0x61,0x74,0x4d,0x75,0x6c,0x3b,0x73,0x65,0x71,0x75,0x65,0x6e,
0x74,0x69,0x61,0x6c,0x5f,0x31,0x2f,0x64,0x65,0x6e,0x73,0x65,
0x5f,0x31,0x5f,0x32,0x2f,0x52,0x65,0x6c,0x75,0x3b,0x73,0x65,
0x71,0x75,0x65,0x6e,0x74,0x69,0x61,0x6c,0x5f,0x31,0x2f,0x64,
0x65,0x6e,0x73,0x65,0x5f,0x31,0x5f,0x32,0x2f,0x42,0x69,0x61,
0x73,0x41,0x64,0x64,0x00,0x00,0x00,0x00,0x02,0x00,0x00,0x00,
0x01,0x00,0x00,0x00,0x20,0x00,0x00,0x00,0x2a,0xf7,0xff,0xff,
0x00,0x00,0x00,0x01,0x18,0x00,0x00,0x00,0x20,0x00,0x00,0x00,
0x3c,0x00,0x00,0x00,0x08,0x00,0x00,0x00,0x00,0x00,0x00,0x09,
0x88,0x00,0x00,0x00,0x02,0x00,0x00,0x00,0xff,0xff,0xff,0xff,
0x20,0x00,0x00,0x00,0x14,0xf7,0xff,0xff,0x08,0x00,0x00,0x00,
0x10,0x00,0x00,0x00,0x01,0x00,0x00,0x00,0x80,0xff,0xff,0xff,
0xff,0xff,0xff,0xff,0x01,0x00,0x00,0x00,0x93,0xda,0x11,0x3b,
0x52,0x00,0x00,0x00,0x73,0x65,0x71,0x75,0x65,0x6e,0x74,0x69,
0x61,0x6c,0x5f,0x31,0x2f,0x64,0x65,0x6e,0x73,0x65,0x5f,0x31,
0x2f,0x4d,0x61,0x74,0x4d,0x75,0x6c,0x3b,0x73,0x65,0x71,0x75,
0x65,0x6e,0x74,0x69,0x61,0x6c,0x5f,0x31,0x2f,0x64,0x65,0x6e,
0x73,0x65,0x5f,0x31,0x2f,0x52,0x65,0x6c,0x75,0x3b,0x73,0x65,
0x71,0x75,0x65,0x6e,0x74,0x69,0x61,0x6c,0x5f,0x31,0x2f,0x64,
0x65,0x6e,0x73,0x65,0x5f,0x31,0x2f,0x42,0x69,0x61,0x73,0x41,
0x64,0x64,0x00,0x00,0x02,0x00,0x00,0x00,0x01,0x00,0x00,0x00,
0x20,0x00,0x00,0x00,0x4e,0xf8,0xff,0xff,0x00,0x00,0x00,0x01,
0x14,0x00,0x00,0x00,0xa8,0x01,0x00,0x00,0x07,0x00,0x00,0x00,
0x00,0x00,0x00,0x09,0xb4,0x01,0x00,0x00,0xb4,0xf7,0xff,0xff,
0x08,0x00,0x00,0x00,0x0c,0x01,0x00,0x00,0x20,0x00,0x00,0x00,
0x00,0x00,0x00,0x00,0x00,0x00,0x00,0x00,0x00,0x00,0x00,0x00,
0x00,0x00,0x00,0x00,0x00,0x00,0x00,0x00,0x00,0x00,0x00,0x00,
0x00,0x00,0x00,0x00,0x00,0x00,0x00,0x00,0x00,0x00,0x00,0x00,
0x00,0x00,0x00,0x00,0x00,0x00,0x00,0x00,0x00,0x00,0x00,0x00,
0x00,0x00,0x00,0x00,0x00,0x00,0x00,0x00,0x00,0x00,0x00,0x00,
0x00,0x00,0x00,0x00,0x00,0x00,0x00,0x00,0x00,0x00,0x00,0x00,
0x00,0x00,0x00,0x00,0x00,0x00,0x00,0x00,0x00,0x00,0x00,0x00,
0x00,0x00,0x00,0x00,0x00,0x00,0x00,0x00,0x00,0x00,0x00,0x00,
0x00,0x00,0x00,0x00,0x00,0x00,0x00,0x00,0x00,0x00,0x00,0x00,
0x00,0x00,0x00,0x00,0x00,0x00,0x00,0x00,0x00,0x00,0x00,0x00,
0x00,0x00,0x00,0x00,0x00,0x00,0x00,0x00,0x00,0x00,0x00,0x00,
0x00,0x00,0x00,0x00,0x00,0x00,0x00,0x00,0x00,0x00,0x00,0x00,
0x00,0x00,0x00,0x00,0x00,0x00,0x00,0x00,0x00,0x00,0x00,0x00,
0x00,0x00,0x00,0x00,0x00,0x00,0x00,0x00,0x00,0x00,0x00,0x00,
0x00,0x00,0x00,0x00,0x00,0x00,0x00,0x00,0x00,0x00,0x00,0x00,
0x00,0x00,0x00,0x00,0x00,0x00,0x00,0x00,0x00,0x00,0x00,0x00,
0x00,0x00,0x00,0x00,0x00,0x00,0x00,0x00,0x00,0x00,0x00,0x00,
0x00,0x00,0x00,0x00,0x00,0x00,0x00,0x00,0x00,0x00,0x00,0x00,
0x00,0x00,0x00,0x00,0x00,0x00,0x00,0x00,0x00,0x00,0x00,0x00,
0x00,0x00,0x00,0x00,0x00,0x00,0x00,0x00,0x00,0x00,0x00,0x00,
0x00,0x00,0x00,0x00,0x00,0x00,0x00,0x00,0x00,0x00,0x00,0x00,
0x00,0x00,0x00,0x00,0x00,0x00,0x00,0x00,0x20,0x00,0x00,0x00,
0xf2,0x65,0x4b,0x3b,0x02,0x09,0x93,0x3b,0x60,0x93,0x94,0x3a,
0x5c,0x26,0x35,0x3b,0x87,0x9e,0xf4,0x3a,0x8c,0x8c,0x60,0x3b,
0x2a,0x70,0x00,0x3b,0x7c,0x15,0xdb,0x3a,0xf0,0x5f,0x6f,0x3b,
0x28,0x67,0x6d,0x3b,0xf9,0xe4,0x91,0x3a,0xfe,0xf5,0x26,0x3b,
0x55,0xda,0x34,0x3a,0xb2,0xa9,0x13,0x3b,0xb4,0x07,0x2a,0x3b,
0x4b,0x7d,0x4d,0x3b,0x57,0x2c,0x42,0x3b,0xd1,0x64,0x48,0x3b,
0x9d,0xfd,0x15,0x3a,0xda,0x5e,0x5d,0x3a,0x46,0xfd,0x8f,0x3a,
0x47,0x92,0x6b,0x38,0xb6,0x27,0x79,0x3a,0x0b,0xa9,0x0f,0x3b,
0x0a,0x76,0xd5,0x3a,0x63,0x67,0xbb,0x3a,0xbf,0xb6,0x70,0x3a,
0xa1,0xdc,0x97,0x36,0x27,0xd2,0x82,0x3b,0xf9,0x57,0x1b,0x3b,
0x79,0xdb,0x3f,0x39,0x04,0x7f,0x32,0x3b,0x12,0x00,0x00,0x00,
0x74,0x66,0x6c,0x2e,0x70,0x73,0x65,0x75,0x64,0x6f,0x5f,0x71,
0x63,0x6f,0x6e,0x73,0x74,0x35,0x00,0x00,0x02,0x00,0x00,0x00,
0x20,0x00,0x00,0x00,0x01,0x00,0x00,0x00,0x26,0xfa,0xff,0xff,
0x00,0x00,0x00,0x01,0x14,0x00,0x00,0x00,0xa4,0x01,0x00,0x00,
0x06,0x00,0x00,0x00,0x00,0x00,0x00,0x02,0xb0,0x01,0x00,0x00,
0x8c,0xf9,0xff,0xff,0x08,0x00,0x00,0x00,0x08,0x01,0x00,0x00,
0x20,0x00,0x00,0x00,0x00,0x00,0x00,0x00,0x00,0x00,0x00,0x00,
0x00,0x00,0x00,0x00,0x00,0x00,0x00,0x00,0x00,0x00,0x00,0x00,
0x00,0x00,0x00,0x00,0x00,0x00,0x00,0x00,0x00,0x00,0x00,0x00,
0x00,0x00,0x00,0x00,0x00,0x00,0x00,0x00,0x00,0x00,0x00,0x00,
0x00,0x00,0x00,0x00,0x00,0x00,0x00,0x00,0x00,0x00,0x00,0x00,
0x00,0x00,0x00,0x00,0x00,0x00,0x00,0x00,0x00,0x00,0x00,0x00,
0x00,0x00,0x00,0x00,0x00,0x00,0x00,0x00,0x00,0x00,0x00,0x00,
0x00,0x00,0x00,0x00,0x00,0x00,0x00,0x00,0x00,0x00,0x00,0x00,
0x00,0x00,0x00,0x00,0x00,0x00,0x00,0x00,0x00,0x00,0x00,0x00,
0x00,0x00,0x00,0x00,0x00,0x00,0x00,0x00,0x00,0x00,0x00,0x00,
0x00,0x00,0x00,0x00,0x00,0x00,0x00,0x00,0x00,0x00,0x00,0x00,
0x00,0x00,0x00,0x00,0x00,0x00,0x00,0x00,0x00,0x00,0x00,0x00,
0x00,0x00,0x00,0x00,0x00,0x00,0x00,0x00,0x00,0x00,0x00,0x00,
0x00,0x00,0x00,0x00,0x00,0x00,0x00,0x00,0x00,0x00,0x00,0x00,
0x00,0x00,0x00,0x00,0x00,0x00,0x00,0x00,0x00,0x00,0x00,0x00,
0x00,0x00,0x00,0x00,0x00,0x00,0x00,0x00,0x00,0x00,0x00,0x00,
0x00,0x00,0x00,0x00,0x00,0x00,0x00,0x00,0x00,0x00,0x00,0x00,
0x00,0x00,0x00,0x00,0x00,0x00,0x00,0x00,0x00,0x00,0x00,0x00,
0x00,0x00,0x00,0x00,0x00,0x00,0x00,0x00,0x00,0x00,0x00,0x00,
0x00,0x00,0x00,0x00,0x00,0x00,0x00,0x00,0x00,0x00,0x00,0x00,
0x00,0x00,0x00,0x00,0x00,0x00,0x00,0x00,0x00,0x00,0x00,0x00,
0x00,0x00,0x00,0x00,0x00,0x00,0x00,0x00,0x20,0x00,0x00,0x00,
0x2f,0xb9,0xcb,0x37,0x2e,0x45,0x13,0x38,0x2e,0xd0,0x14,0x37,
0x7e,0x70,0xb5,0x37,0xa3,0x02,0x75,0x37,0x71,0xe8,0xe0,0x37,
0xba,0xa4,0x80,0x37,0x24,0x6f,0x5b,0x37,0xe6,0xc1,0xef,0x37,
0x50,0xc8,0xed,0x37,0xae,0x20,0x12,0x37,0x52,0x3a,0xa7,0x37,
0x58,0x24,0xb5,0x36,0x20,0xe6,0x93,0x37,0x49,0x4d,0xaa,0x37,
0x63,0xd1,0xcd,0x37,0xce,0x7b,0xc2,0x37,0xd3,0xb6,0xc8,0x37,
0xff,0x3a,0x96,0x36,0x72,0xb9,0xdd,0x36,0x33,0x38,0x10,0x37,
0xaf,0xf2,0xeb,0x34,0xad,0x8d,0xf9,0x36,0xd6,0xe3,0x8f,0x37,
0x65,0xcd,0x55,0x37,0x14,0xb4,0x3b,0x37,0x42,0x19,0xf1,0x36,
0xc7,0x1a,0x18,0x33,0xb1,0x07,0x03,0x38,0x8c,0x97,0x9b,0x37,
0xfd,0x29,0xc0,0x35,0x10,0xc8,0xb2,0x37,0x12,0x00,0x00,0x00,
0x74,0x66,0x6c,0x2e,0x70,0x73,0x65,0x75,0x64,0x6f,0x5f,0x71,
0x63,0x6f,0x6e,0x73,0x74,0x34,0x00,0x00,0x01,0x00,0x00,0x00,
0x20,0x00,0x00,0x00,0xf6,0xfb,0xff,0xff,0x00,0x00,0x00,0x01,
0x14,0x00,0x00,0x00,0xa8,0x01,0x00,0x00,0x05,0x00,0x00,0x00,
0x00,0x00,0x00,0x09,0xb4,0x01,0x00,0x00,0x5c,0xfb,0xff,0xff,
0x08,0x00,0x00,0x00,0x0c,0x01,0x00,0x00,0x20,0x00,0x00,0x00,
0x00,0x00,0x00,0x00,0x00,0x00,0x00,0x00,0x00,0x00,0x00,0x00,
0x00,0x00,0x00,0x00,0x00,0x00,0x00,0x00,0x00,0x00,0x00,0x00,
0x00,0x00,0x00,0x00,0x00,0x00,0x00,0x00,0x00,0x00,0x00,0x00,
0x00,0x00,0x00,0x00,0x00,0x00,0x00,0x00,0x00,0x00,0x00,0x00,
0x00,0x00,0x00,0x00,0x00,0x00,0x00,0x00,0x00,0x00,0x00,0x00,
0x00,0x00,0x00,0x00,0x00,0x00,0x00,0x00,0x00,0x00,0x00,0x00,
0x00,0x00,0x00,0x00,0x00,0x00,0x00,0x00,0x00,0x00,0x00,0x00,
0x00,0x00,0x00,0x00,0x00,0x00,0x00,0x00,0x00,0x00,0x00,0x00,
0x00,0x00,0x00,0x00,0x00,0x00,0x00,0x00,0x00,0x00,0x00,0x00,
0x00,0x00,0x00,0x00,0x00,0x00,0x00,0x00,0x00,0x00,0x00,0x00,
0x00,0x00,0x00,0x00,0x00,0x00,0x00,0x00,0x00,0x00,0x00,0x00,
0x00,0x00,0x00,0x00,0x00,0x00,0x00,0x00,0x00,0x00,0x00,0x00,
0x00,0x00,0x00,0x00,0x00,0x00,0x00,0x00,0x00,0x00,0x00,0x00,
0x00,0x00,0x00,0x00,0x00,0x00,0x00,0x00,0x00,0x00,0x00,0x00,
0x00,0x00,0x00,0x00,0x00,0x00,0x00,0x00,0x00,0x00,0x00,0x00,
0x00,0x00,0x00,0x00,0x00,0x00,0x00,0x00,0x00,0x00,0x00,0x00,
0x00,0x00,0x00,0x00,0x00,0x00,0x00,0x00,0x00,0x00,0x00,0x00,
0x00,0x00,0x00,0x00,0x00,0x00,0x00,0x00,0x00,0x00,0x00,0x00,
0x00,0x00,0x00,0x00,0x00,0x00,0x00,0x00,0x00,0x00,0x00,0x00,
0x00,0x00,0x00,0x00,0x00,0x00,0x00,0x00,0x00,0x00,0x00,0x00,
0x00,0x00,0x00,0x00,0x00,0x00,0x00,0x00,0x00,0x00,0x00,0x00,
0x00,0x00,0x00,0x00,0x00,0x00,0x00,0x00,0x20,0x00,0x00,0x00,
0x48,0x2f,0x90,0x3b,0x11,0xaa,0x81,0x3b,0x9a,0x2d,0xa1,0x3b,
0xc7,0x5d,0x86,0x3b,0x65,0x84,0x6f,0x3b,0x78,0xbc,0xb8,0x3b,
0x6d,0xca,0x20,0x3b,0x44,0x37,0x72,0x3b,0x0e,0xc4,0x8a,0x3b,
0x08,0x6c,0x1e,0x3b,0xde,0x2a,0xa1,0x3b,0x24,0xf6,0x16,0x3b,
0x08,0xb4,0x64,0x3b,0xd5,0x09,0x8a,0x3b,0xb2,0xcf,0x24,0x3b,
0x96,0xa4,0xcb,0x3b,0x17,0xbd,0x8f,0x3b,0xe9,0x5c,0x14,0x3b,
0xf1,0x5e,0x83,0x3b,0xc1,0x9e,0x18,0x3b,0x2f,0x77,0x3f,0x3c,
0x56,0x1e,0xb2,0x3b,0x59,0x6f,0x1a,0x3b,0xf8,0x9b,0x8f,0x3b,
0x95,0xd4,0xbd,0x3b,0x81,0xb8,0x30,0x3b,0xce,0xb7,0x87,0x3b,
0x4e,0x49,0xde,0x3b,0x8b,0xe0,0x1e,0x3b,0x91,0xf4,0xab,0x3b,
0x50,0x05,0x20,0x3b,0x97,0x07,0x99,0x3b,0x12,0x00,0x00,0x00,
0x74,0x66,0x6c,0x2e,0x70,0x73,0x65,0x75,0x64,0x6f,0x5f,0x71,
0x63,0x6f,0x6e,0x73,0x74,0x33,0x00,0x00,0x02,0x00,0x00,0x00,
0x20,0x00,0x00,0x00,0x20,0x00,0x00,0x00,0xce,0xfd,0xff,0xff,
0x00,0x00,0x00,0x01,0x14,0x00,0x00,0x00,0xa4,0x01,0x00,0x00,
0x04,0x00,0x00,0x00,0x00,0x00,0x00,0x02,0xb0,0x01,0x00,0x00,
0x34,0xfd,0xff,0xff,0x08,0x00,0x00,0x00,0x08,0x01,0x00,0x00,
0x20,0x00,0x00,0x00,0x00,0x00,0x00,0x00,0x00,0x00,0x00,0x00,
0x00,0x00,0x00,0x00,0x00,0x00,0x00,0x00,0x00,0x00,0x00,0x00,
0x00,0x00,0x00,0x00,0x00,0x00,0x00,0x00,0x00,0x00,0x00,0x00,
0x00,0x00,0x00,0x00,0x00,0x00,0x00,0x00,0x00,0x00,0x00,0x00,
0x00,0x00,0x00,0x00,0x00,0x00,0x00,0x00,0x00,0x00,0x00,0x00,
0x00,0x00,0x00,0x00,0x00,0x00,0x00,0x00,0x00,0x00,0x00,0x00,
0x00,0x00,0x00,0x00,0x00,0x00,0x00,0x00,0x00,0x00,0x00,0x00,
0x00,0x00,0x00,0x00,0x00,0x00,0x00,0x00,0x00,0x00,0x00,0x00,
0x00,0x00,0x00,0x00,0x00,0x00,0x00,0x00,0x00,0x00,0x00,0x00,
0x00,0x00,0x00,0x00,0x00,0x00,0x00,0x00,0x00,0x00,0x00,0x00,
0x00,0x00,0x00,0x00,0x00,0x00,0x00,0x00,0x00,0x00,0x00,0x00,
0x00,0x00,0x00,0x00,0x00,0x00,0x00,0x00,0x00,0x00,0x00,0x00,
0x00,0x00,0x00,0x00,0x00,0x00,0x00,0x00,0x00,0x00,0x00,0x00,
0x00,0x00,0x00,0x00,0x00,0x00,0x00,0x00,0x00,0x00,0x00,0x00,
0x00,0x00,0x00,0x00,0x00,0x00,0x00,0x00,0x00,0x00,0x00,0x00,
0x00,0x00,0x00,0x00,0x00,0x00,0x00,0x00,0x00,0x00,0x00,0x00,
0x00,0x00,0x00,0x00,0x00,0x00,0x00,0x00,0x00,0x00,0x00,0x00,
0x00,0x00,0x00,0x00,0x00,0x00,0x00,0x00,0x00,0x00,0x00,0x00,
0x00,0x00,0x00,0x00,0x00,0x00,0x00,0x00,0x00,0x00,0x00,0x00,
0x00,0x00,0x00,0x00,0x00,0x00,0x00,0x00,0x00,0x00,0x00,0x00,
0x00,0x00,0x00,0x00,0x00,0x00,0x00,0x00,0x00,0x00,0x00,0x00,
0x00,0x00,0x00,0x00,0x00,0x00,0x00,0x00,0x20,0x00,0x00,0x00,
0xc6,0x4b,0x24,0x37,0x12,0xc0,0x13,0x37,0xe3,0xa8,0x37,0x37,
0xad,0x1b,0x19,0x37,0x7d,0x76,0x08,0x37,0xf5,0x80,0x52,0x37,
0xe1,0x37,0xb7,0x36,0x1c,0x00,0x0a,0x37,0x0d,0x1f,0x1e,0x37,
0xe7,0x84,0xb4,0x36,0xc6,0xa5,0x37,0x37,0x9d,0x04,0xac,0x36,
0x3d,0x4d,0x02,0x37,0xdb,0x4a,0x1d,0x37,0xb7,0xcc,0xbb,0x36,
0x30,0x0c,0x68,0x37,0xa7,0xc9,0x23,0x37,0x99,0x0e,0xa9,0x36,
0xe2,0xb1,0x15,0x37,0x74,0xe8,0xad,0x36,0xf6,0x2b,0xda,0x37,
0x86,0xf6,0x4a,0x37,0xda,0xf9,0xaf,0x36,0xe9,0xa3,0x23,0x37,
0xf9,0x4e,0x58,0x37,0xc7,0x5e,0xc9,0x36,0xf8,0xa5,0x1a,0x37,
0x9e,0x4a,0x7d,0x37,0xaa,0x09,0xb5,0x36,0xae,0xf0,0x43,0x37,
0x45,0x57,0xb6,0x36,0xea,0x5f,0x2e,0x37,0x12,0x00,0x00,0x00,
0x74,0x66,0x6c,0x2e,0x70,0x73,0x65,0x75,0x64,0x6f,0x5f,0x71,
0x63,0x6f,0x6e,0x73,0x74,0x32,0x00,0x00,0x01,0x00,0x00,0x00,
0x20,0x00,0x00,0x00,0x9e,0xff,0xff,0xff,0x00,0x00,0x00,0x01,
0x14,0x00,0x00,0x00,0x30,0x00,0x00,0x00,0x03,0x00,0x00,0x00,
0x00,0x00,0x00,0x09,0x3c,0x00,0x00,0x00,0x04,0xff,0xff,0xff,
0x08,0x00,0x00,0x00,0x10,0x00,0x00,0x00,0x01,0x00,0x00,0x00,
0x00,0x00,0x00,0x00,0x00,0x00,0x00,0x00,0x01,0x00,0x00,0x00,
0xdb,0xf2,0xe6,0x3b,0x12,0x00,0x00,0x00,0x74,0x66,0x6c,0x2e,
0x70,0x73,0x65,0x75,0x64,0x6f,0x5f,0x71,0x63,0x6f,0x6e,0x73,
0x74,0x31,0x00,0x00,0x02,0x00,0x00,0x00,0x01,0x00,0x00,0x00,
0x20,0x00,0x00,0x00,0x00,0x00,0x16,0x00,0x1c,0x00,0x18,0x00,
0x17,0x00,0x10,0x00,0x0c,0x00,0x08,0x00,0x00,0x00,0x00,0x00,
0x00,0x00,0x07,0x00,0x16,0x00,0x00,0x00,0x00,0x00,0x00,0x01,
0x14,0x00,0x00,0x00,0x30,0x00,0x00,0x00,0x02,0x00,0x00,0x00,
0x00,0x00,0x00,0x02,0x3c,0x00,0x00,0x00,0x7c,0xff,0xff,0xff,
0x08,0x00,0x00,0x00,0x10,0x00,0x00,0x00,0x01,0x00,0x00,0x00,
0x00,0x00,0x00,0x00,0x00,0x00,0x00,0x00,0x01,0x00,0x00,0x00,
0x66,0xc1,0x8b,0x37,0x11,0x00,0x00,0x00,0x74,0x66,0x6c,0x2e,
0x70,0x73,0x65,0x75,0x64,0x6f,0x5f,0x71,0x63,0x6f,0x6e,0x73,
0x74,0x00,0x00,0x00,0x01,0x00,0x00,0x00,0x01,0x00,0x00,0x00,
0x00,0x00,0x16,0x00,0x20,0x00,0x1c,0x00,0x1b,0x00,0x14,0x00,
0x10,0x00,0x0c,0x00,0x00,0x00,0x00,0x00,0x08,0x00,0x07,0x00,
0x16,0x00,0x00,0x00,0x00,0x00,0x00,0x01,0x18,0x00,0x00,0x00,
0x2c,0x00,0x00,0x00,0x4c,0x00,0x00,0x00,0x01,0x00,0x00,0x00,
0x00,0x00,0x00,0x09,0x64,0x00,0x00,0x00,0x02,0x00,0x00,0x00,
0xff,0xff,0xff,0xff,0x01,0x00,0x00,0x00,0x0c,0x00,0x0c,0x00,
0x00,0x00,0x00,0x00,0x08,0x00,0x04,0x00,0x0c,0x00,0x00,0x00,
0x08,0x00,0x00,0x00,0x14,0x00,0x00,0x00,0x01,0x00,0x00,0x00,
0x00,0x00,0x00,0x00,0x00,0x00,0x00,0x00,0x00,0x00,0x00,0x00,
0x01,0x00,0x00,0x00,0x62,0x34,0x00,0x3c,0x1e,0x00,0x00,0x00,
0x73,0x65,0x72,0x76,0x69,0x6e,0x67,0x5f,0x64,0x65,0x66,0x61,
0x75,0x6c,0x74,0x5f,0x6b,0x65,0x72,0x61,0x73,0x5f,0x74,0x65,
0x6e,0x73,0x6f,0x72,0x3a,0x30,0x00,0x00,0x02,0x00,0x00,0x00,
0x01,0x00,0x00,0x00,0x01,0x00,0x00,0x00,0x01,0x00,0x00,0x00,
0x10,0x00,0x00,0x00,0x0c,0x00,0x10,0x00,0x0f,0x00,0x00,0x00,
0x08,0x00,0x04,0x00,0x0c,0x00,0x00,0x00,0x09,0x00,0x00,0x00,
0x04,0x00,0x00,0x00,0x00,0x00,0x00,0x09,};
const int model_int8_tflite_len = 5024;
