// Automatically generated from model_int8.tflite
const unsigned char model_int8_tflite[] = {
0x20,0x00,0x00,0x00,0x54,0x46,0x4c,0x33,0x00,0x00,0x00,0x00,
0x14,0x00,0x20,0x00,0x1c,0x00,0x18,0x00,0x14,0x00,0x10,0x00,
0x0c,0x00,0x00,0x00,0x08,0x00,0x04,0x00,0x14,0x00,0x00,0x00,
0x1c,0x00,0x00,0x00,0x98,0x00,0x00,0x00,0xf0,0x00,0x00,0x00,
0x54,0x07,0x00,0x00,0x64,0x07,0x00,0x00,0x44,0x13,0x00,0x00,
0x03,0x00,0x00,0x00,0x01,0x00,0x00,0x00,0x10,0x00,0x00,0x00,
0x00,0x00,0x0a,0x00,0x10,0x00,0x0c,0x00,0x08,0x00,0x04,0x00,
0x0a,0x00,0x00,0x00,0x0c,0x00,0x00,0x00,0x1c,0x00,0x00,0x00,
0x3c,0x00,0x00,0x00,0x0f,0x00,0x00,0x00,0x73,0x65,0x72,0x76,
0x69,0x6e,0x67,0x5f,0x64,0x65,0x66,0x61,0x75,0x6c,0x74,0x00,
0x01,0x00,0x00,0x00,0x04,0x00,0x00,0x00,0x90,0xff,0xff,0xff,
0x09,0x00,0x00,0x00,0x04,0x00,0x00,0x00,0x08,0x00,0x00,0x00,
0x6f,0x75,0x74,0x70,0x75,0x74,0x5f,0x30,0x00,0x00,0x00,0x00,
0x01,0x00,0x00,0x00,0x04,0x00,0x00,0x00,0x3e,0xf9,0xff,0xff,
0x04,0x00,0x00,0x00,0x0c,0x00,0x00,0x00,0x6b,0x65,0x72,0x61,
0x73,0x5f,0x74,0x65,0x6e,0x73,0x6f,0x72,0x00,0x00,0x00,0x00,
0x02,0x00,0x00,0x00,0x34,0x00,0x00,0x00,0x04,0x00,0x00,0x00,
0xdc,0xff,0xff,0xff,0x0c,0x00,0x00,0x00,0x04,0x00,0x00,0x00,
0x13,0x00,0x00,0x00,0x43,0x4f,0x4e,0x56,0x45,0x52,0x53,0x49,
0x4f,0x4e,0x5f,0x4d,0x45,0x54,0x41,0x44,0x41,0x54,0x41,0x00,
0x08,0x00,0x0c,0x00,0x08,0x00,0x04,0x00,0x08,0x00,0x00,0x00,
0x0b,0x00,0x00,0x00,0x04,0x00,0x00,0x00,0x13,0x00,0x00,0x00,
0x6d,0x69,0x6e,0x5f,0x72,0x75,0x6e,0x74,0x69,0x6d,0x65,0x5f,
0x76,0x65,0x72,0x73,0x69,0x6f,0x6e,0x00,0x0d,0x00,0x00,0x00,
0x60,0x06,0x00,0x00,0x58,0x06,0x00,0x00,0x44,0x06,0x00,0x00,
0x0c,0x06,0x00,0x00,0x7c,0x05,0x00,0x00,0x6c,0x01,0x00,0x00,
0xdc,0x00,0x00,0x00,0xac,0x00,0x00,0x00,0xa4,0x00,0x00,0x00,
0x9c,0x00,0x00,0x00,0x94,0x00,0x00,0x00,0x74,0x00,0x00,0x00,
0x04,0x00,0x00,0x00,0xee,0xf9,0xff,0xff,0x04,0x00,0x00,0x00,
0x60,0x00,0x00,0x00,0x0c,0x00,0x00,0x00,0x08,0x00,0x0e,0x00,
0x08,0x00,0x04,0x00,0x08,0x00,0x00,0x00,0x10,0x00,0x00,0x00,
0x28,0x00,0x00,0x00,0x00,0x00,0x06,0x00,0x08,0x00,0x04,0x00,
0x06,0x00,0x00,0x00,0x04,0x00,0x00,0x00,0x01,0x00,0x00,0x00,
0xeb,0x03,0x00,0x00,0x0c,0x00,0x18,0x00,0x14,0x00,0x10,0x00,
0x0c,0x00,0x04,0x00,0x0c,0x00,0x00,0x00,0x8c,0x04,0x70,0xb8,
0xf1,0xac,0x2d,0x0b,0x01,0x00,0x00,0x00,0x02,0x00,0x00,0x00,
0x04,0x00,0x00,0x00,0x06,0x00,0x00,0x00,0x32,0x2e,0x32,0x30,
0x2e,0x30,0x00,0x00,0x5a,0xfa,0xff,0xff,0x04,0x00,0x00,0x00,
0x10,0x00,0x00,0x00,0x31,0x2e,0x31,0x34,0x2e,0x30,0x00,0x00,
0x00,0x00,0x00,0x00,0x00,0x00,0x00,0x00,0xe4,0xf9,0xff,0xff,
0xe8,0xf9,0xff,0xff,0xec,0xf9,0xff,0xff,0x82,0xfa,0xff,0xff,
0x04,0x00,0x00,0x00,0x20,0x00,0x00,0x00,0x81,0x81,0x81,0x7f,
0x7f,0x81,0x7f,0x7f,0x81,0x81,0x7f,0x81,0x81,0x7f,0x81,0x7f,
0x81,0x81,0x7f,0x7f,0x7f,0x7f,0x7f,0x81,0x81,0x7f,0x81,0x7f,
0x7f,0x7f,0x7f,0x81,0xae,0xfa,0xff,0xff,0x04,0x00,0x00,0x00,
0x80,0x00,0x00,0x00,0xa7,0x18,0x00,0x00,0x42,0xee,0xff,0xff,
0xfe,0x4f,0x00,0x00,0x9e,0x38,0x00,0x00,0x83,0x0c,0x00,0x00,
0x44,0x21,0xff,0xff,0xf8,0x4a,0x00,0x00,0x99,0x1a,0x00,0x00,
0x1e,0x14,0x00,0x00,0x22,0x14,0x00,0x00,0x9a,0xfd,0xff,0xff,
0x5f,0x22,0x00,0x00,0xec,0x32,0x00,0x00,0x81,0x06,0x00,0x00,
0x9e,0xe6,0xff,0xff,0xea,0xdc,0xff,0xff,0x1c,0x14,0x00,0x00,
0xec,0xa2,0xff,0xff,0xc2,0x1a,0x00,0x00,0xe2,0xe0,0xff,0xff,
0x04,0x47,0x00,0x00,0x6f,0x71,0x00,0x00,0xc6,0x16,0x00,0x00,
0x22,0xe4,0xff,0xff,0xcc,0xde,0xff,0xff,0xf1,0xeb,0xff,0xff,
0x55,0x48,0x00,0x00,0xb9,0x96,0x00,0x00,0x2a,0x0e,0x00,0x00,
0xf2,0xe0,0xff,0xff,0x57,0x06,0x00,0x00,0x12,0x07,0x00,0x00,
0x3a,0xfb,0xff,0xff,0x04,0x00,0x00,0x00,0x00,0x04,0x00,0x00,
0x34,0x5e,0x61,0x40,0xf8,0x29,0xbc,0x01,0xe0,0x05,0x41,0x08,
0xde,0xb3,0x6d,0xcc,0xd1,0xc8,0x36,0xc9,0xdc,0x55,0xe3,0x5a,
0x0a,0xfb,0x39,0xde,0x36,0x81,0xee,0xc4,0x38,0xa2,0x13,0xc2,
0xc0,0x0f,0xfe,0x8f,0x9c,0x0a,0xc0,0x03,0x81,0x5f,0xba,0xca,
0x83,0x3a,0x29,0x06,0x23,0xdc,0xc9,0xa8,0x3d,0x24,0x38,0x29,
0x61,0x64,0xfb,0xb8,0x49,0xac,0x48,0xd9,0x96,0xc4,0x42,0xad,
0xb9,0x2a,0x3e,0x1c,0x06,0xd5,0x0e,0xb3,0x35,0xe3,0xc6,0xe8,
0x17,0xf9,0xe7,0xb1,0x97,0x42,0x19,0x7f,0xae,0x37,0xcb,0xd7,
0xdf,0x7f,0xa7,0xf4,0x4b,0x5a,0x78,0x6c,0xa3,0x99,0xf3,0xee,
0xdd,0xf1,0x83,0x0e,0x75,0xfc,0x18,0x49,0x05,0xc9,0x9d,0x0e,
0x51,0x23,0x40,0x9c,0xfa,0x46,0x8c,0x27,0xd1,0x04,0x63,0xf6,
0x2b,0x3c,0x07,0x07,0xb5,0x36,0xc2,0x05,0x12,0xa2,0x30,0xb9,
0xf5,0x35,0x3b,0x9e,0x2b,0x39,0xe6,0x36,0x66,0xd0,0x7f,0xe2,
0x4f,0x82,0x1e,0x25,0x8b,0x4f,0xf3,0x3f,0x1e,0x57,0x01,0x81,
0x55,0xa8,0x3e,0x14,0x2c,0xc5,0x97,0x3b,0xa5,0x92,0x15,0x28,
0x95,0xa3,0x1f,0xb7,0xd8,0x02,0x90,0x86,0xf1,0x1c,0x62,0x24,
0xe4,0x16,0x4a,0x09,0xb9,0xce,0x2d,0x14,0x81,0xfc,0x10,0x96,
0xdc,0xb7,0xd7,0xc7,0xcd,0x1c,0xfc,0xd8,0x2d,0x3a,0x39,0xd9,
0xa6,0xf9,0x5b,0x11,0xea,0x82,0x1f,0xdc,0x50,0xf4,0xef,0xd7,
0xb3,0x05,0xde,0xda,0x3c,0x42,0x08,0x32,0x45,0xdd,0xbe,0xbd,
0xd2,0xc3,0xa3,0x01,0x15,0x55,0xef,0x81,0xbe,0x04,0x0b,0x7e,
0xb4,0xff,0xfe,0x38,0x46,0x81,0x17,0xba,0xf3,0x5e,0x55,0xf4,
0xfd,0x60,0x1b,0x1c,0x36,0x3d,0x10,0x07,0x4e,0xc2,0xf2,0x9c,
0x35,0x04,0x9a,0xae,0xd2,0x24,0x3b,0x16,0x93,0xe8,0xdd,0x35,
0x68,0xb8,0x9c,0x76,0xa4,0x9b,0x43,0xcf,0x0f,0x29,0xeb,0xdf,
0xc5,0x81,0x14,0xc0,0xd7,0x52,0xfc,0xaf,0xeb,0x1c,0x54,0x5b,
0x0f,0x9b,0xd6,0xdc,0x4d,0xbb,0xa1,0xc6,0x87,0xf8,0x61,0x08,
0x9a,0x40,0x30,0x5e,0xf2,0x95,0x6f,0xe4,0x81,0x20,0x41,0x01,
0x06,0x5e,0xac,0xdc,0xc0,0x57,0x22,0xe5,0x32,0xc5,0x90,0xaa,
0xd2,0xc4,0xe2,0xae,0x0e,0xd1,0x82,0xec,0x01,0x0d,0xe2,0xed,
0x14,0x22,0x16,0xe4,0x7f,0x27,0xf4,0x6a,0xf0,0xe4,0x24,0x4d,
0x14,0xed,0x2a,0x09,0xfc,0x23,0x98,0xde,0x1b,0x64,0x37,0x0f,
0x46,0xaa,0xea,0xed,0x32,0x35,0xb1,0x06,0x22,0x4f,0x19,0x1e,
0x0b,0x3f,0xf2,0x7f,0x1b,0x17,0x34,0x69,0xdd,0x0a,0x10,0xe0,
0x81,0x7e,0xeb,0xfe,0x53,0x6b,0x58,0xef,0x90,0xf4,0x6e,0x25,
0xc8,0xf0,0xf8,0x0d,0xb5,0x81,0xd2,0xd5,0x22,0x19,0x11,0xd7,
0xa8,0xe4,0x04,0xa6,0x29,0x3b,0x30,0xbe,0xaa,0xbd,0x62,0x44,
0xd0,0xc0,0x06,0x9f,0xb3,0xee,0x97,0x81,0x5a,0x22,0x87,0xd3,
0x22,0xf4,0x21,0x0e,0x6f,0xa3,0x53,0x52,0x44,0x7d,0x5a,0x86,
0x3c,0x86,0xf4,0x84,0xa9,0xd0,0xd7,0x7d,0xd2,0x24,0xc5,0x90,
0xe3,0xd5,0xba,0x93,0xc7,0x02,0xdf,0xab,0xe8,0x81,0x9d,0x32,
0x7c,0xd0,0x40,0xa3,0x1f,0x24,0x04,0x6b,0xf1,0xaf,0x66,0x8d,
0xfb,0xfa,0xa8,0xd9,0xc9,0x78,0x38,0x97,0x05,0xd2,0xd2,0x19,
0x3d,0xf3,0x21,0x0f,0x4f,0x0e,0xf0,0xcd,0xd8,0x4b,0x66,0xbf,
0x46,0xcd,0x0c,0xcc,0x20,0x2f,0xf0,0x36,0x70,0xee,0x77,0x08,
0x50,0x81,0xf4,0x0b,0xb8,0x0f,0xec,0x3a,0x83,0x0d,0x82,0xf2,
0x04,0x65,0x81,0xd4,0x93,0xea,0x00,0xb4,0xd9,0xeb,0x69,0x22,
0xd4,0x5d,0xe4,0xf1,0x62,0xfa,0xfa,0x53,0xc6,0xf3,0xe1,0x10,
0x37,0xb5,0x33,0x2a,0xe5,0xe3,0x05,0xf3,0x3b,0xdd,0xdd,0x29,
0x19,0xe4,0xc7,0xed,0xdd,0x15,0xcd,0x09,0x32,0x13,0x05,0xa9,
0x81,0x28,0xf8,0x18,0x07,0xe2,0xc0,0xe6,0x2d,0xcb,0x32,0xc9,
0x81,0x17,0x06,0xba,0x27,0xfa,0xa8,0x1e,0xeb,0x8d,0xcd,0x0f,
0x01,0xf2,0xc0,0xf1,0x00,0x32,0xba,0x9d,0xb8,0x0e,0x1a,0x4c,
0xcf,0x0d,0xa1,0x04,0x24,0x33,0x01,0x38,0xf0,0xea,0xa1,0x03,
0x1d,0x00,0x03,0x27,0x02,0x20,0x33,0xe3,0x06,0xec,0x05,0xe9,
0x81,0xb4,0x21,0x4f,0x53,0xe7,0xe9,0x9a,0xf8,0x00,0x08,0x05,
0xe6,0x37,0xdd,0x32,0xe6,0xe8,0x85,0xd4,0x2a,0x1a,0x1e,0x35,
0x0e,0x16,0x2f,0xdf,0x2a,0xfb,0xf7,0xd8,0x97,0x81,0x00,0x3f,
0x4a,0xef,0x1d,0x9b,0x1c,0x2a,0x29,0x32,0x9e,0x24,0x32,0x76,
0x9e,0x75,0x26,0x35,0xb3,0xed,0x81,0x31,0xea,0x15,0xc1,0x82,
0xc1,0xd7,0x78,0xf7,0xa7,0xf8,0x1a,0x0f,0x1f,0xd4,0x00,0x25,
0x71,0x9f,0x45,0xd2,0xd7,0x40,0xc4,0x49,0xf4,0x24,0xc1,0x8e,
0x63,0xa3,0x2c,0x57,0xa9,0xfd,0x8f,0x59,0x9f,0x81,0x95,0xb4,
0x52,0x5a,0x90,0x4a,0xfd,0xed,0x35,0x4f,0xd2,0xb1,0x96,0xbc,
0x36,0x00,0x18,0xd3,0xb3,0xcb,0xcf,0xc4,0xe9,0xf6,0xc7,0x46,
0xd2,0x36,0x23,0xbc,0x05,0xd1,0x36,0x32,0xe2,0x41,0xd3,0x81,
0xc2,0x10,0x36,0x0a,0xfb,0xf5,0xef,0xe5,0x87,0xb2,0xb8,0xa5,
0x94,0xde,0xd0,0x65,0x5c,0x4f,0x2e,0xfb,0xd4,0x0f,0x2c,0x65,
0x03,0x1e,0x39,0x81,0x75,0x83,0xf5,0x36,0x63,0x6b,0xa4,0x9f,
0x2c,0x24,0x90,0xb8,0x07,0x09,0x30,0xec,0xa1,0xe6,0xdb,0xd2,
0x09,0xe0,0xa4,0x00,0xec,0x81,0xe6,0xd5,0x12,0xde,0xe5,0xec,
0x18,0x2c,0xb5,0xea,0xd0,0xe9,0x1e,0x26,0xa6,0x00,0x97,0x1b,
0x0a,0xa8,0x38,0x5f,0x00,0xbf,0x2e,0xe4,0xad,0xa7,0x38,0x86,
0xe7,0x2f,0x12,0xc9,0xfe,0xbe,0x5b,0xb3,0x52,0x2d,0x20,0xa9,
0x36,0x9c,0x55,0x7f,0x52,0xa4,0xba,0x89,0xfd,0xc0,0x26,0xc4,
0x42,0xfc,0x92,0x23,0xd4,0xb3,0x59,0x14,0xc0,0x32,0xad,0x40,
0x6b,0x19,0xce,0x21,0x8d,0x55,0x67,0xa1,0x81,0xed,0xf3,0x28,
0xa6,0x09,0x86,0x03,0x20,0x54,0x2a,0x2c,0x04,0xc3,0xeb,0x0f,
0x2d,0x0a,0xd2,0x08,0xda,0xb9,0x22,0x9e,0x16,0x2d,0x28,0x84,
0x37,0xfb,0x3c,0x7f,0x14,0xf1,0x09,0x3f,0xce,0xa4,0x1e,0x3a,
0xa7,0x9d,0x4a,0xcc,0x15,0x7c,0x27,0x01,0x45,0xbb,0xb8,0x77,
0xee,0x4d,0x25,0xe4,0x68,0x72,0xe8,0x84,0xb3,0xde,0xbd,0xd3,
0xc5,0x46,0x85,0x0d,0x69,0x24,0x81,0x6a,0x32,0xac,0x14,0xc3,
0xc5,0xdb,0x1b,0xd2,0x12,0x38,0x1c,0xf4,0x21,0x0a,0xcb,0xdc,
0x32,0x29,0x12,0x2e,0xd9,0xe9,0xdd,0x9d,0x82,0xbd,0x41,0x7f,
0xc5,0x10,0xbb,0xec,0x46,0xff,0xff,0xff,0x04,0x00,0x00,0x00,
0x80,0x00,0x00,0x00,0x8e,0x26,0x00,0x00,0xcb,0xec,0xff,0xff,
0x72,0x38,0x00,0x00,0x08,0xf1,0xff,0xff,0x09,0x25,0x00,0x00,
0x29,0xed,0xff,0xff,0xa6,0x3d,0x00,0x00,0x82,0x30,0x00,0x00,
0x88,0x3d,0x00,0x00,0x18,0xf3,0xff,0xff,0x00,0x00,0x00,0x00,
0x5c,0xc5,0xff,0xff,0x0f,0xe1,0xff,0xff,0x61,0x32,0x00,0x00,
0x00,0x00,0x00,0x00,0x00,0x00,0x00,0x00,0xed,0x1f,0x00,0x00,
0xfa,0xf7,0xff,0xff,0x33,0x15,0x00,0x00,0x0e,0x2c,0x00,0x00,
0xd8,0xe6,0xff,0xff,0x2c,0xea,0xff,0xff,0x17,0x8a,0x00,0x00,
0x86,0xe9,0xff,0xff,0x91,0x2e,0x00,0x00,0xc2,0xf1,0xff,0xff,
0x75,0x22,0x00,0x00,0xff,0x45,0x00,0x00,0xf1,0xef,0xff,0xff,
0x64,0x13,0x00,0x00,0x4c,0xf7,0xff,0xff,0x6d,0x2b,0x00,0x00,
0xd2,0xff,0xff,0xff,0x04,0x00,0x00,0x00,0x20,0x00,0x00,0x00,
0x42,0xda,0x9c,0xea,0x2e,0xdf,0x1c,0x93,0xbe,0xad,0xb8,0x9e,
0x8c,0x71,0xf2,0xba,0x50,0x1d,0x81,0xc8,0x5d,0x73,0x17,0x33,
0xa0,0xcf,0xd4,0x60,0xaf,0x3b,0x57,0x85,0x00,0x00,0x06,0x00,
0x08,0x00,0x04,0x00,0x06,0x00,0x00,0x00,0x04,0x00,0x00,0x00,
0x04,0x00,0x00,0x00,0x13,0x10,0x00,0x00,0x84,0xff,0xff,0xff,
0x88,0xff,0xff,0xff,0x0f,0x00,0x00,0x00,0x4d,0x4c,0x49,0x52,
0x20,0x43,0x6f,0x6e,0x76,0x65,0x72,0x74,0x65,0x64,0x2e,0x00,
0x01,0x00,0x00,0x00,0x14,0x00,0x00,0x00,0x00,0x00,0x0e,0x00,
0x18,0x00,0x14,0x00,0x10,0x00,0x0c,0x00,0x08,0x00,0x04,0x00,
0x0e,0x00,0x00,0x00,0x14,0x00,0x00,0x00,0x1c,0x00,0x00,0x00,
0xdc,0x00,0x00,0x00,0xe0,0x00,0x00,0x00,0xe4,0x00,0x00,0x00,
0x04,0x00,0x00,0x00,0x6d,0x61,0x69,0x6e,0x00,0x00,0x00,0x00,
0x03,0x00,0x00,0x00,0x84,0x00,0x00,0x00,0x3c,0x00,0x00,0x00,
0x04,0x00,0x00,0x00,0x96,0xff,0xff,0xff,0x14,0x00,0x00,0x00,
0x00,0x00,0x00,0x08,0x10,0x00,0x00,0x00,0x14,0x00,0x00,0x00,
0x04,0x00,0x04,0x00,0x04,0x00,0x00,0x00,0x01,0x00,0x00,0x00,
0x09,0x00,0x00,0x00,0x03,0x00,0x00,0x00,0x08,0x00,0x00,0x00,
0x02,0x00,0x00,0x00,0x01,0x00,0x00,0x00,0xca,0xff,0xff,0xff,
0x10,0x00,0x00,0x00,0x00,0x00,0x00,0x08,0x10,0x00,0x00,0x00,
0x14,0x00,0x00,0x00,0xba,0xff,0xff,0xff,0x00,0x00,0x00,0x01,
0x01,0x00,0x00,0x00,0x08,0x00,0x00,0x00,0x03,0x00,0x00,0x00,
0x07,0x00,0x00,0x00,0x04,0x00,0x00,0x00,0x03,0x00,0x00,0x00,
0x00,0x00,0x0e,0x00,0x16,0x00,0x00,0x00,0x10,0x00,0x0c,0x00,
0x0b,0x00,0x04,0x00,0x0e,0x00,0x00,0x00,0x18,0x00,0x00,0x00,
0x00,0x00,0x00,0x08,0x18,0x00,0x00,0x00,0x1c,0x00,0x00,0x00,
0x00,0x00,0x06,0x00,0x08,0x00,0x07,0x00,0x06,0x00,0x00,0x00,
0x00,0x00,0x00,0x01,0x01,0x00,0x00,0x00,0x07,0x00,0x00,0x00,
0x03,0x00,0x00,0x00,0x00,0x00,0x00,0x00,0x06,0x00,0x00,0x00,
0x05,0x00,0x00,0x00,0x01,0x00,0x00,0x00,0x09,0x00,0x00,0x00,
0x01,0x00,0x00,0x00,0x00,0x00,0x00,0x00,0x0a,0x00,0x00,0x00,
0x44,0x0a,0x00,0x00,0xcc,0x09,0x00,0x00,0x50,0x09,0x00,0x00,
0x7c,0x07,0x00,0x00,0xa0,0x05,0x00,0x00,0xcc,0x03,0x00,0x00,
0xf0,0x01,0x00,0x00,0x3c,0x01,0x00,0x00,0x80,0x00,0x00,0x00,
0x04,0x00,0x00,0x00,0xfa,0xf5,0xff,0xff,0x00,0x00,0x00,0x01,
0x18,0x00,0x00,0x00,0x20,0x00,0x00,0x00,0x3c,0x00,0x00,0x00,
0x0a,0x00,0x00,0x00,0x00,0x00,0x00,0x09,0x50,0x00,0x00,0x00,
0x02,0x00,0x00,0x00,0xff,0xff,0xff,0xff,0x01,0x00,0x00,0x00,
0xe4,0xf5,0xff,0xff,0x08,0x00,0x00,0x00,0x10,0x00,0x00,0x00,
0x01,0x00,0x00,0x00,0x01,0x00,0x00,0x00,0x00,0x00,0x00,0x00,
0x01,0x00,0x00,0x00,0x12,0x16,0xff,0x3b,0x1b,0x00,0x00,0x00,
0x53,0x74,0x61,0x74,0x65,0x66,0x75,0x6c,0x50,0x61,0x72,0x74,
0x69,0x74,0x69,0x6f,0x6e,0x65,0x64,0x43,0x61,0x6c,0x6c,0x5f,
0x31,0x3a,0x30,0x00,0x02,0x00,0x00,0x00,0x01,0x00,0x00,0x00,
0x01,0x00,0x00,0x00,0x72,0xf6,0xff,0xff,0x00,0x00,0x00,0x01,
0x18,0x00,0x00,0x00,0x20,0x00,0x00,0x00,0x3c,0x00,0x00,0x00,
0x09,0x00,0x00,0x00,0x00,0x00,0x00,0x09,0x90,0x00,0x00,0x00,
0x02,0x00,0x00,0x00,0xff,0xff,0xff,0xff,0x20,0x00,0x00,0x00,
0x5c,0xf6,0xff,0xff,0x08,0x00,0x00,0x00,0x10,0x00,0x00,0x00,
0x01,0x00,0x00,0x00,0x80,0xff,0xff,0xff,0xff,0xff,0xff,0xff,
0x01,0x00,0x00,0x00,0x03,0xe7,0x70,0x3b,0x58,0x00,0x00,0x00,
0x73,0x65,0x71,0x75,0x65,0x6e,0x74,0x69,0x61,0x6c,0x5f,0x31,
0x2f,0x64,0x65,0x6e,0x73,0x65,0x5f,0x31,0x5f,0x32,0x2f,0x4d,
0x61,0x74,0x4d,0x75,0x6c,0x3b,0x73,0x65,0x71,0x75,0x65,0x6e,
0x74,0x69,0x61,0x6c,0x5f,0x31,0x2f,0x64,0x65,0x6e,0x73,0x65,
0x5f,0x31,0x5f,0x32,0x2f,0x52,0x65,0x6c,0x75,0x3b,0x73,0x65,
0x71,0x75,0x65,0x6e,0x74,0x69,0x61,0x6c,0x5f,0x31,0x2f,0x64,
0x65,0x6e,0x73,0x65,0x5f,0x31,0x5f,0x32,0x2f,0x42,0x69,0x61,
0x73,0x41,0x64,0x64,0x00,0x00,0x00,0x00,0x02,0x00,0x00,0x00,
0x01,0x00,0x00,0x00,0x20,0x00,0x00,0x00,0x2a,0xf7,0xff,0xff,
0x00,0x00,0x00,0x01,0x18,0x00,0x00,0x00,0x20,0x00,0x00,0x00,
0x3c,0x00,0x00,0x00,0x08,0x00,0x00,0x00,0x00,0x00,0x00,0x09,
0x88,0x00,0x00,0x00,0x02,0x00,0x00,0x00,0xff,0xff,0xff,0xff,
0x20,0x00,0x00,0x00,0x14,0xf7,0xff,0xff,0x08,0x00,0x00,0x00,
0x10,0x00,0x00,0x00,0x01,0x00,0x00,0x00,0x80,0xff,0xff,0xff,
0xff,0xff,0xff,0xff,0x01,0x00,0x00,0x00,0x8c,0x7d,0x25,0x3b,
0x52,0x00,0x00,0x00,0x73,0x65,0x71,0x75,0x65,0x6e,0x74,0x69,
0x61,0x6c,0x5f,0x31,0x2f,0x64,0x65,0x6e,0x73,0x65,0x5f,0x31,
0x2f,0x4d,0x61,0x74,0x4d,0x75,0x6c,0x3b,0x73,0x65,0x71,0x75,
0x65,0x6e,0x74,0x69,0x61,0x6c,0x5f,0x31,0x2f,0x64,0x65,0x6e,
0x73,0x65,0x5f,0x31,0x2f,0x52,0x65,0x6c,0x75,0x3b,0x73,0x65,
0x71,0x75,0x65,0x6e,0x74,0x69,0x61,0x6c,0x5f,0x31,0x2f,0x64,
0x65,0x6e,0x73,0x65,0x5f,0x31,0x2f,0x42,0x69,0x61,0x73,0x41,
0x64,0x64,0x00,0x00,0x02,0x00,0x00,0x00,0x01,0x00,0x00,0x00,
0x20,0x00,0x00,0x00,0x4e,0xf8,0xff,0xff,0x00,0x00,0x00,0x01,
0x14,0x00,0x00,0x00,0xa8,0x01,0x00,0x00,0x07,0x00,0x00,0x00,
0x00,0x00,0x00,0x09,0xb4,0x01,0x00,0x00,0xb4,0xf7,0xff,0xff,
0x08,0x00,0x00,0x00,0x0c,0x01,0x00,0x00,0x20,0x00,0x00,0x00,
0x00,0x00,0x00,0x00,0x00,0x00,0x00,0x00,0x00,0x00,0x00,0x00,
0x00,0x00,0x00,0x00,0x00,0x00,0x00,0x00,0x00,0x00,0x00,0x00,
0x00,0x00,0x00,0x00,0x00,0x00,0x00,0x00,0x00,0x00,0x00,0x00,
0x00,0x00,0x00,0x00,0x00,0x00,0x00,0x00,0x00,0x00,0x00,0x00,
0x00,0x00,0x00,0x00,0x00,0x00,0x00,0x00,0x00,0x00,0x00,0x00,
0x00,0x00,0x00,0x00,0x00,0x00,0x00,0x00,0x00,0x00,0x00,0x00,
0x00,0x00,0x00,0x00,0x00,0x00,0x00,0x00,0x00,0x00,0x00,0x00,
0x00,0x00,0x00,0x00,0x00,0x00,0x00,0x00,0x00,0x00,0x00,0x00,
0x00,0x00,0x00,0x00,0x00,0x00,0x00,0x00,0x00,0x00,0x00,0x00,
0x00,0x00,0x00,0x00,0x00,0x00,0x00,0x00,0x00,0x00,0x00,0x00,
0x00,0x00,0x00,0x00,0x00,0x00,0x00,0x00,0x00,0x00,0x00,0x00,
0x00,0x00,0x00,0x00,0x00,0x00,0x00,0x00,0x00,0x00,0x00,0x00,
0x00,0x00,0x00,0x00,0x00,0x00,0x00,0x00,0x00,0x00,0x00,0x00,
0x00,0x00,0x00,0x00,0x00,0x00,0x00,0x00,0x00,0x00,0x00,0x00,
0x00,0x00,0x00,0x00,0x00,0x00,0x00,0x00,0x00,0x00,0x00,0x00,
0x00,0x00,0x00,0x00,0x00,0x00,0x00,0x00,0x00,0x00,0x00,0x00,
0x00,0x00,0x00,0x00,0x00,0x00,0x00,0x00,0x00,0x00,0x00,0x00,
0x00,0x00,0x00,0x00,0x00,0x00,0x00,0x00,0x00,0x00,0x00,0x00,
0x00,0x00,0x00,0x00,0x00,0x00,0x00,0x00,0x00,0x00,0x00,0x00,
0x00,0x00,0x00,0x00,0x00,0x00,0x00,0x00,0x00,0x00,0x00,0x00,
0x00,0x00,0x00,0x00,0x00,0x00,0x00,0x00,0x00,0x00,0x00,0x00,
0x00,0x00,0x00,0x00,0x00,0x00,0x00,0x00,0x20,0x00,0x00,0x00,
0x5a,0xb1,0x45,0x3b,0x8b,0x15,0x7d,0x3b,0x6f,0xe5,0x0f,0x3b,
0xb2,0xe0,0xa0,0x3a,0x87,0xb2,0x2b,0x3b,0xed,0xf9,0xf3,0x37,
0xee,0xe7,0xa3,0x3a,0x24,0x3f,0x5c,0x3a,0x03,0x39,0x48,0x3b,
0x80,0x93,0x52,0x3b,0x82,0x2b,0x4f,0x3b,0xd3,0x38,0xa0,0x3a,
0x50,0xff,0x72,0x3a,0x75,0x5b,0x38,0x3b,0x64,0x77,0x69,0x3b,
0xac,0x54,0x52,0x3b,0xeb,0x54,0xea,0x3a,0x9b,0xae,0x25,0x39,
0x34,0x3d,0x12,0x3b,0x15,0x3b,0x6e,0x3b,0x91,0xa8,0xb0,0x3a,
0xeb,0xf6,0x84,0x3a,0x0c,0x13,0x4e,0x3b,0xaa,0x34,0x2b,0x3b,
0x35,0x26,0x05,0x3b,0x4c,0x93,0x41,0x3b,0x22,0x3a,0x1b,0x3b,
0x83,0x53,0x5f,0x3a,0xa3,0x48,0x14,0x3b,0x30,0x64,0x45,0x3b,
0xc2,0x5c,0x4b,0x3b,0xb2,0x0f,0x62,0x3b,0x12,0x00,0x00,0x00,
0x74,0x66,0x6c,0x2e,0x70,0x73,0x65,0x75,0x64,0x6f,0x5f,0x71,
0x63,0x6f,0x6e,0x73,0x74,0x35,0x00,0x00,0x02,0x00,0x00,0x00,
0x20,0x00,0x00,0x00,0x01,0x00,0x00,0x00,0x26,0xfa,0xff,0xff,
0x00,0x00,0x00,0x01,0x14,0x00,0x00,0x00,0xa4,0x01,0x00,0x00,
0x06,0x00,0x00,0x00,0x00,0x00,0x00,0x02,0xb0,0x01,0x00,0x00,
0x8c,0xf9,0xff,0xff,0x08,0x00,0x00,0x00,0x08,0x01,0x00,0x00,
0x20,0x00,0x00,0x00,0x00,0x00,0x00,0x00,0x00,0x00,0x00,0x00,
0x00,0x00,0x00,0x00,0x00,0x00,0x00,0x00,0x00,0x00,0x00,0x00,
0x00,0x00,0x00,0x00,0x00,0x00,0x00,0x00,0x00,0x00,0x00,0x00,
0x00,0x00,0x00,0x00,0x00,0x00,0x00,0x00,0x00,0x00,0x00,0x00,
0x00,0x00,0x00,0x00,0x00,0x00,0x00,0x00,0x00,0x00,0x00,0x00,
0x00,0x00,0x00,0x00,0x00,0x00,0x00,0x00,0x00,0x00,0x00,0x00,
0x00,0x00,0x00,0x00,0x00,0x00,0x00,0x00,0x00,0x00,0x00,0x00,
0x00,0x00,0x00,0x00,0x00,0x00,0x00,0x00,0x00,0x00,0x00,0x00,
0x00,0x00,0x00,0x00,0x00,0x00,0x00,0x00,0x00,0x00,0x00,0x00,
0x00,0x00,0x00,0x00,0x00,0x00,0x00,0x00,0x00,0x00,0x00,0x00,
0x00,0x00,0x00,0x00,0x00,0x00,0x00,0x00,0x00,0x00,0x00,0x00,
0x00,0x00,0x00,0x00,0x00,0x00,0x00,0x00,0x00,0x00,0x00,0x00,
0x00,0x00,0x00,0x00,0x00,0x00,0x00,0x00,0x00,0x00,0x00,0x00,
0x00,0x00,0x00,0x00,0x00,0x00,0x00,0x00,0x00,0x00,0x00,0x00,
0x00,0x00,0x00,0x00,0x00,0x00,0x00,0x00,0x00,0x00,0x00,0x00,
0x00,0x00,0x00,0x00,0x00,0x00,0x00,0x00,0x00,0x00,0x00,0x00,
0x00,0x00,0x00,0x00,0x00,0x00,0x00,0x00,0x00,0x00,0x00,0x00,
0x00,0x00,0x00,0x00,0x00,0x00,0x00,0x00,0x00,0x00,0x00,0x00,
0x00,0x00,0x00,0x00,0x00,0x00,0x00,0x00,0x00,0x00,0x00,0x00,
0x00,0x00,0x00,0x00,0x00,0x00,0x00,0x00,0x00,0x00,0x00,0x00,
0x00,0x00,0x00,0x00,0x00,0x00,0x00,0x00,0x00,0x00,0x00,0x00,
0x00,0x00,0x00,0x00,0x00,0x00,0x00,0x00,0x20,0x00,0x00,0x00,
0x41,0x02,0xc6,0x37,0x1e,0x7d,0xfd,0x37,0x52,0x20,0x90,0x37,
0x88,0x22,0x21,0x37,0xcb,0xf8,0xab,0x37,0xc5,0x5d,0x74,0x34,
0x02,0x2b,0x24,0x37,0x46,0x99,0xdc,0x36,0xf3,0x8a,0xc8,0x37,
0xad,0xe9,0xd2,0x37,0x4a,0x80,0xcf,0x37,0x65,0x7a,0x20,0x37,
0xc2,0x62,0xf3,0x36,0xe7,0xa6,0xb8,0x37,0xef,0xd6,0xe9,0x37,
0xbf,0xaa,0xd2,0x37,0xd1,0xb4,0x6a,0x37,0x69,0xf2,0xa5,0x35,
0x0d,0x79,0x92,0x37,0x93,0x9c,0xee,0x37,0xdd,0xf0,0x30,0x37,
0x55,0x2d,0x05,0x37,0x62,0x67,0xce,0x37,0xba,0x7a,0xab,0x37,
0xb2,0x5c,0x85,0x37,0x84,0xe2,0xc1,0x37,0xa8,0x79,0x9b,0x37,
0xe8,0xae,0xdf,0x36,0x52,0x85,0x94,0x37,0xf8,0xb4,0xc5,0x37,
0xfb,0xaf,0xcb,0x37,0x35,0x6c,0xe2,0x37,0x12,0x00,0x00,0x00,
0x74,0x66,0x6c,0x2e,0x70,0x73,0x65,0x75,0x64,0x6f,0x5f,0x71,
0x63,0x6f,0x6e,0x73,0x74,0x34,0x00,0x00,0x01,0x00,0x00,0x00,
0x20,0x00,0x00,0x00,0xf6,0xfb,0xff,0xff,0x00,0x00,0x00,0x01,
0x14,0x00,0x00,0x00,0xa8,0x01,0x00,0x00,0x05,0x00,0x00,0x00,
0x00,0x00,0x00,0x09,0xb4,0x01,0x00,0x00,0x5c,0xfb,0xff,0xff,
0x08,0x00,0x00,0x00,0x0c,0x01,0x00,0x00,0x20,0x00,0x00,0x00,
0x00,0x00,0x00,0x00,0x00,0x00,0x00,0x00,0x00,0x00,0x00,0x00,
0x00,0x00,0x00,0x00,0x00,0x00,0x00,0x00,0x00,0x00,0x00,0x00,
0x00,0x00,0x00,0x00,0x00,0x00,0x00,0x00,0x00,0x00,0x00,0x00,
0x00,0x00,0x00,0x00,0x00,0x00,0x00,0x00,0x00,0x00,0x00,0x00,
0x00,0x00,0x00,0x00,0x00,0x00,0x00,0x00,0x00,0x00,0x00,0x00,
0x00,0x00,0x00,0x00,0x00,0x00,0x00,0x00,0x00,0x00,0x00,0x00,
0x00,0x00,0x00,0x00,0x00,0x00,0x00,0x00,0x00,0x00,0x00,0x00,
0x00,0x00,0x00,0x00,0x00,0x00,0x00,0x00,0x00,0x00,0x00,0x00,
0x00,0x00,0x00,0x00,0x00,0x00,0x00,0x00,0x00,0x00,0x00,0x00,
0x00,0x00,0x00,0x00,0x00,0x00,0x00,0x00,0x00,0x00,0x00,0x00,
0x00,0x00,0x00,0x00,0x00,0x00,0x00,0x00,0x00,0x00,0x00,0x00,
0x00,0x00,0x00,0x00,0x00,0x00,0x00,0x00,0x00,0x00,0x00,0x00,
0x00,0x00,0x00,0x00,0x00,0x00,0x00,0x00,0x00,0x00,0x00,0x00,
0x00,0x00,0x00,0x00,0x00,0x00,0x00,0x00,0x00,0x00,0x00,0x00,
0x00,0x00,0x00,0x00,0x00,0x00,0x00,0x00,0x00,0x00,0x00,0x00,
0x00,0x00,0x00,0x00,0x00,0x00,0x00,0x00,0x00,0x00,0x00,0x00,
0x00,0x00,0x00,0x00,0x00,0x00,0x00,0x00,0x00,0x00,0x00,0x00,
0x00,0x00,0x00,0x00,0x00,0x00,0x00,0x00,0x00,0x00,0x00,0x00,
0x00,0x00,0x00,0x00,0x00,0x00,0x00,0x00,0x00,0x00,0x00,0x00,
0x00,0x00,0x00,0x00,0x00,0x00,0x00,0x00,0x00,0x00,0x00,0x00,
0x00,0x00,0x00,0x00,0x00,0x00,0x00,0x00,0x00,0x00,0x00,0x00,
0x00,0x00,0x00,0x00,0x00,0x00,0x00,0x00,0x20,0x00,0x00,0x00,
0x21,0x9a,0x67,0x3b,0x16,0xae,0x2e,0x3b,0x09,0x94,0x68,0x3b,
0x8a,0xb6,0x17,0x3b,0xae,0xd4,0x63,0x3b,0x31,0x33,0x28,0x3b,
0x55,0xe0,0x92,0x3b,0x0f,0x29,0x88,0x3b,0x1f,0x4d,0x48,0x3b,
0xb7,0x16,0x1e,0x3b,0x45,0x9d,0x19,0x3b,0x93,0xca,0x05,0x3c,
0x67,0x24,0x75,0x3b,0x82,0xbd,0xc0,0x3b,0x4c,0x37,0x1c,0x3b,
0x14,0xea,0x1b,0x3b,0x51,0x34,0x5d,0x3b,0x12,0xd2,0x11,0x3b,
0x08,0xc8,0xb8,0x3b,0x79,0x9a,0xe9,0x3b,0x33,0x2d,0x0d,0x3c,
0x38,0x65,0xee,0x3b,0x90,0x24,0x12,0x3b,0x9b,0x52,0x18,0x3b,
0x1a,0x08,0x89,0x3b,0xba,0x4a,0x1b,0x3b,0xeb,0x53,0x05,0x3c,
0x41,0xdd,0x5e,0x3b,0xe8,0x68,0x1c,0x3b,0xdc,0xed,0x9e,0x3b,
0x50,0x50,0x18,0x3b,0xc5,0x61,0xa0,0x3b,0x12,0x00,0x00,0x00,
0x74,0x66,0x6c,0x2e,0x70,0x73,0x65,0x75,0x64,0x6f,0x5f,0x71,
0x63,0x6f,0x6e,0x73,0x74,0x33,0x00,0x00,0x02,0x00,0x00,0x00,
0x20,0x00,0x00,0x00,0x20,0x00,0x00,0x00,0xce,0xfd,0xff,0xff,
0x00,0x00,0x00,0x01,0x14,0x00,0x00,0x00,0xa4,0x01,0x00,0x00,
0x04,0x00,0x00,0x00,0x00,0x00,0x00,0x02,0xb0,0x01,0x00,0x00,
0x34,0xfd,0xff,0xff,0x08,0x00,0x00,0x00,0x08,0x01,0x00,0x00,
0x20,0x00,0x00,0x00,0x00,0x00,0x00,0x00,0x00,0x00,0x00,0x00,
0x00,0x00,0x00,0x00,0x00,0x00,0x00,0x00,0x00,0x00,0x00,0x00,
0x00,0x00,0x00,0x00,0x00,0x00,0x00,0x00,0x00,0x00,0x00,0x00,
0x00,0x00,0x00,0x00,0x00,0x00,0x00,0x00,0x00,0x00,0x00,0x00,
0x00,0x00,0x00,0x00,0x00,0x00,0x00,0x00,0x00,0x00,0x00,0x00,
0x00,0x00,0x00,0x00,0x00,0x00,0x00,0x00,0x00,0x00,0x00,0x00,
0x00,0x00,0x00,0x00,0x00,0x00,0x00,0x00,0x00,0x00,0x00,0x00,
0x00,0x00,0x00,0x00,0x00,0x00,0x00,0x00,0x00,0x00,0x00,0x00,
0x00,0x00,0x00,0x00,0x00,0x00,0x00,0x00,0x00,0x00,0x00,0x00,
0x00,0x00,0x00,0x00,0x00,0x00,0x00,0x00,0x00,0x00,0x00,0x00,
0x00,0x00,0x00,0x00,0x00,0x00,0x00,0x00,0x00,0x00,0x00,0x00,
0x00,0x00,0x00,0x00,0x00,0x00,0x00,0x00,0x00,0x00,0x00,0x00,
0x00,0x00,0x00,0x00,0x00,0x00,0x00,0x00,0x00,0x00,0x00,0x00,
0x00,0x00,0x00,0x00,0x00,0x00,0x00,0x00,0x00,0x00,0x00,0x00,
0x00,0x00,0x00,0x00,0x00,0x00,0x00,0x00,0x00,0x00,0x00,0x00,
0x00,0x00,0x00,0x00,0x00,0x00,0x00,0x00,0x00,0x00,0x00,0x00,
0x00,0x00,0x00,0x00,0x00,0x00,0x00,0x00,0x00,0x00,0x00,0x00,
0x00,0x00,0x00,0x00,0x00,0x00,0x00,0x00,0x00,0x00,0x00,0x00,
0x00,0x00,0x00,0x00,0x00,0x00,0x00,0x00,0x00,0x00,0x00,0x00,
0x00,0x00,0x00,0x00,0x00,0x00,0x00,0x00,0x00,0x00,0x00,0x00,
0x00,0x00,0x00,0x00,0x00,0x00,0x00,0x00,0x00,0x00,0x00,0x00,
0x00,0x00,0x00,0x00,0x00,0x00,0x00,0x00,0x20,0x00,0x00,0x00,
0xec,0xb7,0x15,0x37,0xbd,0xd7,0xe1,0x36,0x79,0x59,0x16,0x37,
0x1c,0x26,0xc4,0x36,0xd0,0x47,0x13,0x37,0xf7,0x76,0xd9,0x36,
0x3d,0xe5,0x3d,0x37,0x7a,0x0a,0x30,0x37,0xf0,0x7b,0x01,0x37,
0x57,0x64,0xcc,0x36,0x67,0x9b,0xc6,0x36,0x5c,0xfa,0xac,0x37,
0xaf,0x78,0x1e,0x37,0x55,0x31,0x79,0x37,0x81,0xf8,0xc9,0x36,
0xab,0x94,0xc9,0x36,0x34,0xff,0x0e,0x37,0xd2,0x87,0xbc,0x36,
0x18,0xe7,0x6e,0x37,0x20,0x03,0x97,0x37,0xbc,0x86,0xb6,0x37,
0x27,0x1c,0x9a,0x37,0x79,0xf2,0xbc,0x36,0xe3,0xef,0xc4,0x36,
0xd9,0x2a,0x31,0x37,0xa5,0xc6,0xc8,0x36,0xf3,0x60,0xac,0x37,
0xe7,0x11,0x10,0x37,0xa5,0x38,0xca,0x36,0x80,0x7a,0x4d,0x37,
0xec,0xec,0xc4,0x36,0x57,0x5b,0x4f,0x37,0x12,0x00,0x00,0x00,
0x74,0x66,0x6c,0x2e,0x70,0x73,0x65,0x75,0x64,0x6f,0x5f,0x71,
0x63,0x6f,0x6e,0x73,0x74,0x32,0x00,0x00,0x01,0x00,0x00,0x00,
0x20,0x00,0x00,0x00,0x9e,0xff,0xff,0xff,0x00,0x00,0x00,0x01,
0x14,0x00,0x00,0x00,0x30,0x00,0x00,0x00,0x03,0x00,0x00,0x00,
0x00,0x00,0x00,0x09,0x3c,0x00,0x00,0x00,0x04,0xff,0xff,0xff,
0x08,0x00,0x00,0x00,0x10,0x00,0x00,0x00,0x01,0x00,0x00,0x00,
0x00,0x00,0x00,0x00,0x00,0x00,0x00,0x00,0x01,0x00,0x00,0x00,
0x82,0x80,0x9b,0x3b,0x12,0x00,0x00,0x00,0x74,0x66,0x6c,0x2e,
0x70,0x73,0x65,0x75,0x64,0x6f,0x5f,0x71,0x63,0x6f,0x6e,0x73,
0x74,0x31,0x00,0x00,0x02,0x00,0x00,0x00,0x01,0x00,0x00,0x00,
0x20,0x00,0x00,0x00,0x00,0x00,0x16,0x00,0x1c,0x00,0x18,0x00,
0x17,0x00,0x10,0x00,0x0c,0x00,0x08,0x00,0x00,0x00,0x00,0x00,
0x00,0x00,0x07,0x00,0x16,0x00,0x00,0x00,0x00,0x00,0x00,0x01,
0x14,0x00,0x00,0x00,0x30,0x00,0x00,0x00,0x02,0x00,0x00,0x00,
0x00,0x00,0x00,0x02,0x3c,0x00,0x00,0x00,0x7c,0xff,0xff,0xff,
0x08,0x00,0x00,0x00,0x10,0x00,0x00,0x00,0x01,0x00,0x00,0x00,
0x00,0x00,0x00,0x00,0x00,0x00,0x00,0x00,0x01,0x00,0x00,0x00,
0xcd,0x54,0x92,0x37,0x11,0x00,0x00,0x00,0x74,0x66,0x6c,0x2e,
0x70,0x73,0x65,0x75,0x64,0x6f,0x5f,0x71,0x63,0x6f,0x6e,0x73,
0x74,0x00,0x00,0x00,0x01,0x00,0x00,0x00,0x01,0x00,0x00,0x00,
0x00,0x00,0x16,0x00,0x20,0x00,0x1c,0x00,0x1b,0x00,0x14,0x00,
0x10,0x00,0x0c,0x00,0x00,0x00,0x00,0x00,0x08,0x00,0x07,0x00,
0x16,0x00,0x00,0x00,0x00,0x00,0x00,0x01,0x18,0x00,0x00,0x00,
0x2c,0x00,0x00,0x00,0x4c,0x00,0x00,0x00,0x01,0x00,0x00,0x00,
0x00,0x00,0x00,0x09,0x64,0x00,0x00,0x00,0x02,0x00,0x00,0x00,
0xff,0xff,0xff,0xff,0x01,0x00,0x00,0x00,0x0c,0x00,0x0c,0x00,
0x00,0x00,0x00,0x00,0x08,0x00,0x04,0x00,0x0c,0x00,0x00,0x00,
0x08,0x00,0x00,0x00,0x14,0x00,0x00,0x00,0x01,0x00,0x00,0x00,
0x00,0x00,0x00,0x00,0x00,0x00,0x00,0x00,0x00,0x00,0x00,0x00,
0x01,0x00,0x00,0x00,0x62,0x34,0x00,0x3c,0x1e,0x00,0x00,0x00,
0x73,0x65,0x72,0x76,0x69,0x6e,0x67,0x5f,0x64,0x65,0x66,0x61,
0x75,0x6c,0x74,0x5f,0x6b,0x65,0x72,0x61,0x73,0x5f,0x74,0x65,
0x6e,0x73,0x6f,0x72,0x3a,0x30,0x00,0x00,0x02,0x00,0x00,0x00,
0x01,0x00,0x00,0x00,0x01,0x00,0x00,0x00,0x01,0x00,0x00,0x00,
0x10,0x00,0x00,0x00,0x0c,0x00,0x10,0x00,0x0f,0x00,0x00,0x00,
0x08,0x00,0x04,0x00,0x0c,0x00,0x00,0x00,0x09,0x00,0x00,0x00,
0x04,0x00,0x00,0x00,0x00,0x00,0x00,0x09,};
const int model_int8_tflite_len = 5024;
